TRT-101100-EntropyCalibration2
images: 3cd242b6
onnx::Mul_13422_output: 3b2c06e0
onnx::Mul_13706: 3b2c06e0
onnx::Mul_13651: 3b2c06e0
onnx::Mul_13596: 3b2c06e0
onnx::Mul_13541: 3b2c06e0
onnx::Mul_13486: 3b2c06e0
onnx::Abs_13385_output: 3b810a14
onnx::Abs_13386: 3b810a14
onnx::Add_12023_output: 3e5f397d
onnx::Add_13333: 3e5f397d
onnx::Mul_12021_output: 3ef38860
onnx::Mul_13331: 3ef38860
onnx::Add_12013_output: 3c46f507
onnx::Add_13323: 3c46f507
onnx::Mul_12011_output: 3cc70e28
onnx::Mul_13321: 3cc70e28
onnx::Add_12003_output: 3c813949
onnx::Add_13313: 3c813949
onnx::Mul_12001_output: 3e44e2ae
onnx::Mul_13311: 3e44e2ae
onnx::Add_11993_output: 3cccc567
onnx::Add_13303: 3cccc567
onnx::Mul_11991_output: 3f371063
onnx::Mul_13301: 3f371063
onnx::Add_11983_output: 3c4c1ee9
onnx::Add_13293: 3c4c1ee9
onnx::Mul_11981_output: 3dd730a5
onnx::Mul_13291: 3dd730a5
onnx::Add_11973_output: 3c61c7cd
onnx::Add_13283: 3c61c7cd
onnx::Mul_11971_output: 3e5a848f
onnx::Mul_13281: 3e5a848f
onnx::Add_11963_output: 3cf7a103
onnx::Add_13273: 3cf7a103
onnx::Mul_11961_output: 3e191f70
onnx::Mul_13271: 3e191f70
onnx::Add_11953_output: 3c93d66b
onnx::Add_13263: 3c93d66b
onnx::Mul_11951_output: 3dfce121
onnx::Mul_13261: 3dfce121
onnx::Add_11943_output: 3c933ac4
onnx::Add_13253: 3c933ac4
onnx::Mul_11941_output: 3e2dd664
onnx::Mul_13251: 3e2dd664
onnx::Add_11933_output: 3cb7ea45
onnx::Add_13243: 3cb7ea45
onnx::Mul_11931_output: 3dbd1f09
onnx::Mul_13241: 3dbd1f09
onnx::Add_11923_output: 3cbc781a
onnx::Add_13233: 3cbc781a
onnx::Mul_11921_output: 3e2d48fa
onnx::Mul_13231: 3e2d48fa
onnx::Add_11913_output: 3cb2165f
onnx::Add_13223: 3cb2165f
onnx::Mul_11911_output: 3d33e583
onnx::Mul_13221: 3d33e583
onnx::Add_11903_output: 3cd04658
onnx::Add_13213: 3cd04658
onnx::Mul_11901_output: 3e145adb
onnx::Mul_13211: 3e145adb
onnx::Add_11893_output: 3c0ba7ca
onnx::Add_13203: 3c0ba7ca
onnx::Mul_11891_output: 3cb0ea58
onnx::Mul_13201: 3cb0ea58
onnx::Add_11883_output: 3d31d735
onnx::Add_13193: 3d31d735
onnx::Mul_11881_output: 3de7f3a9
onnx::Mul_13191: 3de7f3a9
onnx::Add_11873_output: 3cb19146
onnx::Add_13183: 3cb19146
onnx::Mul_11871_output: 3d0608f0
onnx::Mul_13181: 3d0608f0
onnx::Add_11863_output: 3c888b6e
onnx::Add_13173: 3c888b6e
onnx::Mul_11861_output: 3e198c65
onnx::Mul_13171: 3e198c65
onnx::Add_11853_output: 3c9160ed
onnx::Add_13163: 3c9160ed
onnx::Mul_11851_output: 3e39137f
onnx::Mul_13161: 3e39137f
onnx::Add_11843_output: 3cd5c405
onnx::Add_13153: 3cd5c405
onnx::Mul_11841_output: 3df34ab8
onnx::Mul_13151: 3df34ab8
onnx::Add_11833_output: 3cad0a15
onnx::Add_13143: 3cad0a15
onnx::Mul_11831_output: 3decabee
onnx::Mul_13141: 3decabee
onnx::Add_11823_output: 3c9a1ab3
onnx::Add_13133: 3c9a1ab3
onnx::Mul_11821_output: 3e0b7b34
onnx::Mul_13131: 3e0b7b34
onnx::Add_11813_output: 3c859c80
onnx::Add_13123: 3c859c80
onnx::Mul_11811_output: 3db8309f
onnx::Mul_13121: 3db8309f
onnx::Add_11803_output: 3c785710
onnx::Add_13113: 3c785710
onnx::Mul_11801_output: 3e0f1db1
onnx::Mul_13111: 3e0f1db1
onnx::Add_11793_output: 3ccbcfce
onnx::Add_13103: 3ccbcfce
onnx::Mul_11791_output: 3d9bc17f
onnx::Mul_13101: 3d9bc17f
onnx::Add_11783_output: 3d0c99de
onnx::Add_13093: 3d0c99de
onnx::Mul_11781_output: 3dffcd47
onnx::Mul_13091: 3dffcd47
onnx::Add_11773_output: 3cbfe692
onnx::Add_13083: 3cbfe692
onnx::Mul_11771_output: 3d450a4d
onnx::Mul_13081: 3d450a4d
onnx::Add_11763_output: 3cae621f
onnx::Add_13073: 3cae621f
onnx::Mul_11761_output: 3e1f4f2c
onnx::Mul_13071: 3e1f4f2c
onnx::Add_11753_output: 3c186907
onnx::Add_13063: 3c186907
onnx::Mul_11751_output: 3ca2416f
onnx::Mul_13061: 3ca2416f
onnx::Add_11743_output: 3cfef2c3
onnx::Add_13053: 3cfef2c3
onnx::Mul_11741_output: 3df73ec3
onnx::Mul_13051: 3df73ec3
onnx::Add_11733_output: 3d8cf501
onnx::Add_13043: 3d8cf501
onnx::Mul_11731_output: 3e7ea58d
onnx::Mul_13041: 3e7ea58d
onnx::Add_11723_output: 3cc2b6b7
onnx::Add_13033: 3cc2b6b7
onnx::Mul_11721_output: 3d21ac35
onnx::Mul_13031: 3d21ac35
onnx::Add_11713_output: 3bf46205
onnx::Add_13023: 3bf46205
onnx::Mul_11711_output: 3fe14208
onnx::Mul_13021: 3fe14208
onnx::Add_11703_output: 3c9acba0
onnx::Add_13013: 3c9acba0
onnx::Mul_11701_output: 401f621f
onnx::Mul_13011: 401f621f
onnx::Add_11693_output: 3c20d9be
onnx::Add_13003: 3c20d9be
onnx::Mul_11691_output: 3de8ba44
onnx::Mul_13001: 3de8ba44
onnx::Add_11683_output: 3c2a2057
onnx::Add_12993: 3c2a2057
onnx::Mul_11681_output: 3ebebcf1
onnx::Mul_12991: 3ebebcf1
onnx::Add_11673_output: 3c51c74e
onnx::Add_12983: 3c51c74e
onnx::Mul_11671_output: 3d91b6e9
onnx::Mul_12981: 3d91b6e9
onnx::Add_11663_output: 3c9f3b87
onnx::Add_12973: 3c9f3b87
onnx::Mul_11661_output: 3e2afd6d
onnx::Mul_12971: 3e2afd6d
onnx::Add_11653_output: 3c811725
onnx::Add_12963: 3c811725
onnx::Mul_11651_output: 3dd6c8e9
onnx::Mul_12961: 3dd6c8e9
onnx::Add_11643_output: 3c7db267
onnx::Add_12953: 3c7db267
onnx::Mul_11641_output: 3dce0ac7
onnx::Mul_12951: 3dce0ac7
onnx::Add_11633_output: 3c9b4f07
onnx::Add_12943: 3c9b4f07
onnx::Mul_11631_output: 3de7d713
onnx::Mul_12941: 3de7d713
onnx::Add_11623_output: 3cb4e823
onnx::Add_12933: 3cb4e823
onnx::Mul_11621_output: 3d3f790a
onnx::Mul_12931: 3d3f790a
onnx::Add_11613_output: 3d010349
onnx::Add_12923: 3d010349
onnx::Mul_11611_output: 3dcabc52
onnx::Mul_12921: 3dcabc52
onnx::Add_11603_output: 3c8e526d
onnx::Add_12913: 3c8e526d
onnx::Mul_11601_output: 3cdfc60c
onnx::Mul_12911: 3cdfc60c
onnx::Add_11593_output: 3cc54cc5
onnx::Add_12903: 3cc54cc5
onnx::Mul_11591_output: 3f24d9af
onnx::Mul_12901: 3f24d9af
onnx::Add_11583_output: 3ceeadec
onnx::Add_12893: 3ceeadec
onnx::Mul_11581_output: 3d3eafae
onnx::Mul_12891: 3d3eafae
onnx::Add_11573_output: 3cc1e83c
onnx::Add_12883: 3cc1e83c
onnx::Mul_11571_output: 3e336db5
onnx::Mul_12881: 3e336db5
onnx::Add_11563_output: 3cc7d41e
onnx::Add_12873: 3cc7d41e
onnx::Mul_11561_output: 3dc38063
onnx::Mul_12871: 3dc38063
onnx::Add_11553_output: 3c8646a8
onnx::Add_12863: 3c8646a8
onnx::Mul_11551_output: 3db3e081
onnx::Mul_12861: 3db3e081
onnx::Add_11543_output: 3c51bf44
onnx::Add_12853: 3c51bf44
onnx::Mul_11541_output: 3dda58a0
onnx::Mul_12851: 3dda58a0
onnx::Add_11533_output: 3cb5d06d
onnx::Add_12843: 3cb5d06d
onnx::Mul_11531_output: 3dc6485f
onnx::Mul_12841: 3dc6485f
onnx::Add_11523_output: 3c86dffb
onnx::Add_12833: 3c86dffb
onnx::Mul_11521_output: 3dbbb2ba
onnx::Mul_12831: 3dbbb2ba
onnx::Add_11513_output: 3cb0a2c2
onnx::Add_12823: 3cb0a2c2
onnx::Mul_11511_output: 3d888774
onnx::Mul_12821: 3d888774
onnx::Add_11503_output: 3c91d97c
onnx::Add_12813: 3c91d97c
onnx::Mul_11501_output: 3de70258
onnx::Mul_12811: 3de70258
onnx::Add_11493_output: 3c9bb889
onnx::Add_12803: 3c9bb889
onnx::Mul_11491_output: 3db3540d
onnx::Mul_12801: 3db3540d
onnx::Add_11483_output: 3cf5903f
onnx::Add_12793: 3cf5903f
onnx::Mul_11481_output: 3d608abc
onnx::Mul_12791: 3d608abc
onnx::Add_11473_output: 3d2117c8
onnx::Add_12783: 3d2117c8
onnx::Mul_11471_output: 3dbd448b
onnx::Mul_12781: 3dbd448b
onnx::Add_11463_output: 3cca91fc
onnx::Add_12773: 3cca91fc
onnx::Mul_11461_output: 3d087b43
onnx::Mul_12771: 3d087b43
onnx::Add_11453_output: 3c581afd
onnx::Add_12763: 3c581afd
onnx::Mul_11451_output: 3f0a606c
onnx::Mul_12761: 3f0a606c
onnx::Add_11443_output: 3cabb210
onnx::Add_12753: 3cabb210
onnx::Mul_11441_output: 3d6d791d
onnx::Mul_12751: 3d6d791d
onnx::Add_11433_output: 3cf92fb5
onnx::Add_12743: 3cf92fb5
onnx::Mul_11431_output: 3f2d1178
onnx::Mul_12741: 3f2d1178
onnx::Add_11423_output: 3cb4d7b4
onnx::Add_12733: 3cb4d7b4
onnx::Mul_11421_output: 401f6955
onnx::Mul_12731: 401f6955
onnx::Add_11413_output: 3c32ebf8
onnx::Add_12723: 3c32ebf8
onnx::Mul_11411_output: 3d8962d6
onnx::Mul_12721: 3d8962d6
onnx::Add_11403_output: 3cc3230c
onnx::Add_12713: 3cc3230c
onnx::Mul_11401_output: 3e294873
onnx::Mul_12711: 3e294873
onnx::Add_11393_output: 3c1aeef2
onnx::Add_12703: 3c1aeef2
onnx::Mul_11391_output: 3dbe34b2
onnx::Mul_12701: 3dbe34b2
onnx::Add_11383_output: 3c89967b
onnx::Add_12693: 3c89967b
onnx::Mul_11381_output: 3e21538a
onnx::Mul_12691: 3e21538a
onnx::Add_11373_output: 3c64d1ba
onnx::Add_12683: 3c64d1ba
onnx::Mul_11371_output: 3dbf8fdd
onnx::Mul_12681: 3dbf8fdd
onnx::Add_11363_output: 3c714686
onnx::Add_12673: 3c714686
onnx::Mul_11361_output: 3dd26dd5
onnx::Mul_12671: 3dd26dd5
onnx::Add_11353_output: 3cb2c085
onnx::Add_12663: 3cb2c085
onnx::Mul_11351_output: 3dd98346
onnx::Mul_12661: 3dd98346
onnx::Add_11343_output: 3cbd6d18
onnx::Add_12653: 3cbd6d18
onnx::Mul_11341_output: 3d8552d7
onnx::Mul_12651: 3d8552d7
onnx::Add_11333_output: 3cb7e6cd
onnx::Add_12643: 3cb7e6cd
onnx::Mul_11331_output: 3e097a78
onnx::Mul_12641: 3e097a78
onnx::Add_11323_output: 3ca110fe
onnx::Add_12633: 3ca110fe
onnx::Mul_11321_output: 3d1484df
onnx::Mul_12631: 3d1484df
onnx::Add_11313_output: 3cc3561c
onnx::Add_12623: 3cc3561c
onnx::Mul_11311_output: 3f2fe503
onnx::Mul_12621: 3f2fe503
onnx::Add_11303_output: 3cf717cf
onnx::Add_12613: 3cf717cf
onnx::Mul_11301_output: 3d452b7a
onnx::Mul_12611: 3d452b7a
onnx::Add_11293_output: 3ca2021d
onnx::Add_12603: 3ca2021d
onnx::Mul_11291_output: 3e4a7c80
onnx::Mul_12601: 3e4a7c80
onnx::Add_11283_output: 3c844e52
onnx::Add_12593: 3c844e52
onnx::Mul_11281_output: 3dc2442b
onnx::Mul_12591: 3dc2442b
onnx::Add_11273_output: 3cceb769
onnx::Add_12583: 3cceb769
onnx::Mul_11271_output: 3e020f41
onnx::Mul_12581: 3e020f41
onnx::Add_11263_output: 3c4979bd
onnx::Add_12573: 3c4979bd
onnx::Mul_11261_output: 3da9b68f
onnx::Mul_12571: 3da9b68f
onnx::Add_11253_output: 3cc8a2d7
onnx::Add_12563: 3cc8a2d7
onnx::Mul_11251_output: 3e00661c
onnx::Mul_12561: 3e00661c
onnx::Add_11243_output: 3c4b959f
onnx::Add_12553: 3c4b959f
onnx::Mul_11241_output: 3d6ca880
onnx::Mul_12551: 3d6ca880
onnx::Add_11233_output: 3ca4475c
onnx::Add_12543: 3ca4475c
onnx::Mul_11231_output: 3dfa7b8b
onnx::Mul_12541: 3dfa7b8b
onnx::Add_11223_output: 3c7f366a
onnx::Add_12533: 3c7f366a
onnx::Mul_11221_output: 3d52b4e0
onnx::Mul_12531: 3d52b4e0
onnx::Add_11213_output: 3cdbb4e3
onnx::Add_12523: 3cdbb4e3
onnx::Mul_11211_output: 3e0814df
onnx::Mul_12521: 3e0814df
onnx::Add_11203_output: 3cd52037
onnx::Add_12513: 3cd52037
onnx::Mul_11201_output: 3d22701e
onnx::Mul_12511: 3d22701e
onnx::Add_11193_output: 3d204ab8
onnx::Add_12503: 3d204ab8
onnx::Mul_11191_output: 3e020e04
onnx::Mul_12501: 3e020e04
onnx::Add_11183_output: 3ccba174
onnx::Add_12493: 3ccba174
onnx::Mul_11181_output: 3d2566c9
onnx::Mul_12491: 3d2566c9
onnx::Add_11173_output: 3cc692cd
onnx::Add_12483: 3cc692cd
onnx::Mul_11171_output: 3f5ab45e
onnx::Mul_12481: 3f5ab45e
onnx::Add_11163_output: 3d159a0a
onnx::Add_12473: 3d159a0a
onnx::Mul_11161_output: 3d150b99
onnx::Mul_12471: 3d150b99
onnx::Add_11153_output: 3d0d687b
onnx::Add_12463: 3d0d687b
onnx::Mul_11151_output: 3e9a2ff5
onnx::Mul_12461: 3e9a2ff5
onnx::Add_11143_output: 3cc83d42
onnx::Add_12453: 3cc83d42
onnx::Mul_11141_output: 3eb85e66
onnx::Mul_12451: 3eb85e66
onnx::Add_11133_output: 3c814397
onnx::Add_12443: 3c814397
onnx::Mul_11131_output: 3deb808c
onnx::Mul_12441: 3deb808c
onnx::Add_11123_output: 3c9f6ce8
onnx::Add_12433: 3c9f6ce8
onnx::Mul_11121_output: 3e40bb18
onnx::Mul_12431: 3e40bb18
onnx::Add_11113_output: 3cc9056d
onnx::Add_12423: 3cc9056d
onnx::Mul_11111_output: 3e117a0e
onnx::Mul_12421: 3e117a0e
onnx::Add_11103_output: 3caf3ac4
onnx::Add_12413: 3caf3ac4
onnx::Mul_11101_output: 3dca3027
onnx::Mul_12411: 3dca3027
onnx::Add_11093_output: 3cf4d5a4
onnx::Add_12403: 3cf4d5a4
onnx::Mul_11091_output: 3e1ce7d8
onnx::Mul_12401: 3e1ce7d8
onnx::Add_11083_output: 3c843cb1
onnx::Add_12393: 3c843cb1
onnx::Mul_11081_output: 3d681936
onnx::Mul_12391: 3d681936
onnx::Add_11073_output: 3d05826c
onnx::Add_12383: 3d05826c
onnx::Mul_11071_output: 3e0c9313
onnx::Mul_12381: 3e0c9313
onnx::Add_11063_output: 3cb52b3f
onnx::Add_12373: 3cb52b3f
onnx::Mul_11061_output: 3d155db5
onnx::Mul_12371: 3d155db5
onnx::Add_11053_output: 3d0119a5
onnx::Add_12363: 3d0119a5
onnx::Mul_11051_output: 3de6ba21
onnx::Mul_12361: 3de6ba21
onnx::Add_11043_output: 3c4c349d
onnx::Add_12353: 3c4c349d
onnx::Mul_11041_output: 3c81160f
onnx::Mul_12351: 3c81160f
onnx::Add_11033_output: 3d00799b
onnx::Add_12343: 3d00799b
onnx::Mul_11031_output: 3e66ae18
onnx::Mul_12341: 3e66ae18
onnx::Add_11023_output: 3d82203c
onnx::Add_12333: 3d82203c
onnx::Mul_11021_output: 3f48338e
onnx::Mul_12331: 3f48338e
onnx::Add_11013_output: 3d12a06a
onnx::Add_12323: 3d12a06a
onnx::Mul_11011_output: 3d7c77fa
onnx::Mul_12321: 3d7c77fa
onnx::Add_11003_output: 3cfe18ea
onnx::Add_12313: 3cfe18ea
onnx::Mul_11001_output: 3d9ee1c8
onnx::Mul_12311: 3d9ee1c8
onnx::Add_10993_output: 3cb6b400
onnx::Add_12303: 3cb6b400
onnx::Mul_10991_output: 3d28423a
onnx::Mul_12301: 3d28423a
onnx::Add_10983_output: 3d01a1e8
onnx::Add_12293: 3d01a1e8
onnx::Mul_10981_output: 3d247de4
onnx::Mul_12291: 3d247de4
onnx::Add_10973_output: 3d11f234
onnx::Add_12283: 3d11f234
onnx::Mul_10971_output: 3d0d9cd7
onnx::Mul_12281: 3d0d9cd7
onnx::Add_10963_output: 3cf1329f
onnx::Add_12273: 3cf1329f
onnx::Mul_10961_output: 3d42a814
onnx::Mul_12271: 3d42a814
onnx::Add_10953_output: 3cca2846
onnx::Add_12263: 3cca2846
onnx::Mul_10951_output: 3d16ddb5
onnx::Mul_12261: 3d16ddb5
onnx::Add_10943_output: 3d3c49cd
onnx::Add_12253: 3d3c49cd
onnx::Mul_10941_output: 3d391c78
onnx::Mul_12251: 3d391c78
onnx::Add_10933_output: 3d172d84
onnx::Add_12243: 3d172d84
onnx::Mul_10931_output: 3cf8ba6d
onnx::Mul_12241: 3cf8ba6d
onnx::Add_10923_output: 3d3627c3
onnx::Add_12233: 3d3627c3
onnx::Mul_10921_output: 3d8e061a
onnx::Mul_12231: 3d8e061a
onnx::Add_10913_output: 3d0e1564
onnx::Add_12223: 3d0e1564
onnx::Mul_10911_output: 3d7c970b
onnx::Mul_12221: 3d7c970b
onnx::Add_10903_output: 3d202567
onnx::Add_12213: 3d202567
onnx::Mul_10901_output: 3d3c792f
onnx::Mul_12211: 3d3c792f
onnx::Add_10893_output: 3ceaa875
onnx::Add_12203: 3ceaa875
onnx::Mul_10891_output: 3d4956cb
onnx::Mul_12201: 3d4956cb
onnx::Add_10883_output: 3d0baa72
onnx::Add_12193: 3d0baa72
onnx::Mul_10881_output: 3d2f912a
onnx::Mul_12191: 3d2f912a
onnx::Add_10873_output: 3d180056
onnx::Add_12183: 3d180056
onnx::Mul_10871_output: 3c7bab37
onnx::Mul_12181: 3c7bab37
onnx::Add_10863_output: 3d8c167f
onnx::Add_12173: 3d8c167f
onnx::Mul_10861_output: 4028ab69
onnx::Mul_12171: 4028ab69
onnx::Add_10853_output: 3de2a7b3
onnx::Add_12163: 3de2a7b3
onnx::Mul_10851_output: 3f9bebd3
onnx::Mul_12161: 3f9bebd3
onnx::Add_10843_output: 3d889349
onnx::Add_12153: 3d889349
onnx::Mul_10841_output: 3dfa6270
onnx::Mul_12151: 3dfa6270
onnx::Add_10833_output: 3d100bb9
onnx::Add_12143: 3d100bb9
onnx::Mul_10831_output: 3d82815c
onnx::Mul_12141: 3d82815c
onnx::Add_10823_output: 3c8b046e
onnx::Add_12133: 3c8b046e
onnx::Mul_10821_output: 3d278d33
onnx::Mul_12131: 3d278d33
onnx::Add_10813_output: 3c884cfc
onnx::Add_12123: 3c884cfc
onnx::Mul_10811_output: 3ce9cceb
onnx::Mul_12121: 3ce9cceb
onnx::Add_10803_output: 3cbd4589
onnx::Add_12113: 3cbd4589
onnx::Mul_10801_output: 3cd3cd27
onnx::Mul_12111: 3cd3cd27
onnx::Add_10793_output: 3ce99884
onnx::Add_12103: 3ce99884
onnx::Mul_10791_output: 3cfd2bb1
onnx::Mul_12101: 3cfd2bb1
onnx::Add_10783_output: 3caf9242
onnx::Add_12093: 3caf9242
onnx::Mul_10781_output: 3d87c324
onnx::Mul_12091: 3d87c324
onnx::Add_10773_output: 3ca12f93
onnx::Add_12083: 3ca12f93
onnx::Mul_10771_output: 3d97ed41
onnx::Mul_12081: 3d97ed41
onnx::Add_10763_output: 3c05360d
onnx::Add_12073: 3c05360d
onnx::Mul_10761_output: 3bf4aef4
onnx::Mul_12071: 3bf4aef4
onnx::Add_10753_output: 3be1d21c
onnx::Add_12063: 3be1d21c
onnx::Mul_10751_output: 3d2aceaf
onnx::Mul_12061: 3d2aceaf
onnx::Add_10738_output: 3b91a2ae
onnx::Add_12048: 3b91a2ae
onnx::Mul_10736_output: 3c80bdca
onnx::Mul_12046: 3c80bdca
onnx::Add_10723_output: 3b8525d3
onnx::Add_12033: 3b8525d3
onnx::Mul_10721_output: 3b9e8b3d
onnx::Mul_12031: 3b9e8b3d
onnx::MatMul_13388_output: 3d136daa
onnx::MatMul_13672: 3d136daa
onnx::MatMul_13387_output: 3d05e1c2
onnx::MatMul_13671: 3d05e1c2
onnx::MatMul_13617: 3d136daa
onnx::MatMul_13616: 3d05e1c2
onnx::MatMul_13562: 3d136daa
onnx::MatMul_13561: 3d05e1c2
onnx::MatMul_13507: 3d136daa
onnx::MatMul_13506: 3d05e1c2
onnx::MatMul_13452: 3d136daa
onnx::MatMul_13451: 3d05e1c2
/seg_model/backbone/stem/stem1/conv/Conv_output_0: 3d483071
/seg_model/backbone/stem/stem1/bn/Mul_output_0: 3c574e6e
/seg_model/backbone/stem/stem1/bn/Add_output_0: 3c964b00
/seg_model/backbone/stem/stem1/act/Relu_output_0: 3c8ae1d2
/seg_model/dfine_model/decoder/decoder/Gather_13_output_0: 3d323de1
/seg_model/dfine_model/decoder/decoder/layers.2/cross_attn/Constant_12_output_0_output: 3b810a14
ONNXTRT_Broadcast_1873_output: 3b810a14
ONNXTRT_Broadcast_1497_output: 3d010a14
/seg_model/dfine_model/decoder/decoder/layers.3/self_attn/Add_1_output_0: 3e6b881c
ONNXTRT_Broadcast_1763_output: 3b54aef3
/seg_model/dfine_model/decoder/decoder/Div_23_output_0: 3c0208b7
ONNXTRT_Broadcast_2898_output: 3c3636ea
onnx::Add_13525_output: 3c19424d
/seg_model/dfine_model/decoder/decoder/layers.3/self_attn/Reshape_4_output_0: 3f3ef511
/postprocessor/Flatten_output_0: 3a88857d
/seg_model/dfine_model/decoder/decoder/layers.5/cross_attn/Split_output_0: 3c7f9fce
/seg_model/dfine_model/decoder/decoder/layers.2/cross_attn/Reshape_4_output_0: 3c987888
/seg_model/dfine_model/decoder/decoder/layers.5/gateway/Sigmoid_output_0: 3c0213b4
/postprocessor/Split_output_1: 3bfed19a
/seg_model/dfine_model/decoder/decoder/dec_bbox_head.1/act/Relu_output_0: 3d8df6eb
ONNXTRT_Broadcast_2990_output: 3baffea3
scores: 3bfbe73f
/seg_model/dfine_model/decoder/decoder/layers.2/self_attn/MatMul_3_output_0: 401b12bf
/seg_model/dfine_model/decoder/decoder/layers.2/gateway/Mul_2_output_0: 3be4fb2d
ONNXTRT_Broadcast_2305_output: 3d136daa
/postprocessor/Mul_4_output_0: 40a17986
onnx::MatMul_13717_output: 3c3636ea
/seg_model/dfine_model/decoder/decoder/layers.3/self_attn/Transpose_1_output_0: 3d8d1d3f
/seg_model/dfine_model/decoder/decoder/layers.5/gateway/Concat_output_0: 3d43c8ce
/seg_model/dfine_model/decoder/decoder/Constant_162_output_0_output: 3b810a14
/seg_model/dfine_model/decoder/decoder/lqe_layers.5/Softmax_output: 3bd3add2
/seg_model/dfine_model/decoder/decoder/layers.5/cross_attn/Softmax_output_0: 3bf0c2c5
ONNXTRT_Broadcast_2900_output: 3b3457f0
seg_model.dfine_model.decoder.decoder.layers.5.gateway.gate.bias_output: 3b3457f0
/seg_model/dfine_model/decoder/decoder/layers.4/Add_2_output_0: 3cd86398
/seg_model/dfine_model/decoder/decoder/layers.5/activation/Relu_output_0: 3e6d4cb5
/seg_model/dfine_model/decoder/decoder/layers.5/gateway/gate/Add_output_0: 3dda62f5
/seg_model/dfine_model/decoder/decoder/lqe_layers.5/Softmax_output_0: 3bd3add2
/seg_model/dfine_model/decoder/decoder/layers.2/cross_attn/Reshape_2_output_0: 3c95c967
seg_model.dfine_model.decoder.decoder.layers.2.self_attn.out_proj.weight_output: 3c9fa78b
ONNXTRT_Broadcast_1629_output: 3b810a14
/seg_model/dfine_model/decoder/decoder/Add_72_output_0: 3db91364
/seg_model/dfine_model/decoder/decoder/integral_2/Identity_output_0: 3d810a14
/seg_model/dfine_model/decoder/decoder/Constant_135_output_0_output: 3c810a14
/seg_model/dfine_model/decoder/decoder/query_pos_head/layers.1_4/MatMul_output_0: 3cd78127
ONNXTRT_Broadcast_1938_output: 3c1f1b5c
/postprocessor/Mul_1_output_0: 3b80d0be
/seg_model/dfine_model/decoder/decoder/Sub_21_output_0: 3bfd9c71
/seg_model/dfine_model/decoder/decoder/layers.2/cross_attn/Mul_1_output_0: 3c93b036
/postprocessor/Constant_6_output_0_output: 3b810a14
/seg_model/dfine_model/decoder/decoder/layers.2/cross_attn/Split_output_2: 3c8d4d2f
/seg_model/backbone/stem/Pad_output_0: 3c8ae1d2
/seg_model/backbone/stem/stem2a/conv/Conv_output_0: 3c8e3f10
/seg_model/backbone/stem/stem2a/bn/Mul_output_0: 3c9e52bd
/seg_model/backbone/stem/stem2a/bn/Add_output_0: 3c9a8444
/seg_model/backbone/stem/stem2a/act/Relu_output_0: 3c8917a5
ONNXTRT_Broadcast_3070_output: 3c634a53
/seg_model/dfine_model/decoder/decoder/layers.2/cross_attn/Mul_output_0: 3d5467cf
/seg_model/dfine_model/decoder/decoder/Constant_134_output_0_output: 3c810a14
/seg_model/dfine_model/decoder/decoder/Div_10_output_0: 3a81f2c1
ONNXTRT_Broadcast_1553_output: 3c19424d
/seg_model/dfine_model/decoder/decoder/Cast_14_output_0: 3d810a14
seg_model.dfine_model.decoder.dec_bbox_head.3.layers.1.bias_output: 3c05cb4c
ONNXTRT_Broadcast_1555_output: 3cb06b84
onnx::MatMul_13530_output: 3c5a9def
/seg_model/dfine_model/decoder/decoder/layers.3/cross_attn/Transpose_1_output_0: 3bf709dc
/seg_model/Resize_output_0: 3fa8d9e9
seg_model.dfine_model.decoder.decoder.layers.2.gateway.gate.bias_output: 3b54aef3
/seg_model/dfine_model/decoder/decoder/layers.3/cross_attn/Reshape_1_output_0: 3dee14d0
/seg_model/dfine_model/decoder/decoder/layers.4/cross_attn/Constant_12_output_0_output: 3b810a14
/seg_model/dfine_model/decoder/decoder/layers.5/cross_attn/Mul_5_output_0: 3ba9c72c
/seg_model/dfine_model/decoder/decoder/query_pos_head/layers.1_3/Add_output_0: 3d3076bc
/seg_model/dfine_model/decoder/decoder/layers.4/self_attn/Mul_1_output_0: 3cf9ae6e
/seg_model/dfine_model/decoder/decoder/Gather_14_output_0: 3d5f6059
/postprocessor/Unsqueeze_2_output_0: 3c012e05
ONNXTRT_Broadcast_2387_output: 3b810a14
/seg_model/dfine_model/decoder/decoder/layers.4/self_attn/Add_1_output_0: 3e362508
/seg_model/dfine_model/decoder/decoder/layers.4/self_attn/Reshape_4_output_0: 3e75ed02
/seg_model/dfine_model/decoder/decoder/layers.4/cross_attn/Split_output_2: 3c18f414
/seg_model/seg_head/decoder/decoder.5/Relu_output_0: 3de27876
/seg_model/seg_head/fpn/lateral_convs.0/Conv_output_0: 3e81548a
/seg_model/dfine_model/decoder/decoder/dec_bbox_head.3/layers.0/Add_output_0: 3d882700
/seg_model/dfine_model/decoder/decoder/Add_48_output_0: 3db6c193
ONNXTRT_Broadcast_1853_output: 3c376dc9
/seg_model/dfine_model/decoder/decoder/dec_bbox_head.3/layers.0/MatMul_output_0: 3d79e7e4
onnx::MatMul_13533_output: 3c9635a7
/postprocessor/Constant_7_output_0_output: 3b810a14
seg_model.dfine_model.decoder.decoder.layers.2.cross_attn.sampling_offsets.bias_output: 3d30ffaa
/seg_model/dfine_model/decoder/decoder/integral_1/Identity_output_0: 3d810a14
/seg_model/dfine_model/decoder/decoder/integral_1/Reshape_output_0: 3f4c7998
ONNXTRT_Broadcast_1859_output: 3c3f7d6c
/seg_model/dfine_model/decoder/decoder/layers.5/cross_attn/Transpose_1_output_0: 3bf0c2c5
onnx::MatMul_13558_output: 3c80aefe
/seg_model/dfine_model/decoder/decoder/layers.4/cross_attn/Transpose_1_output_0: 3bcb03c9
/seg_model/dfine_model/decoder/decoder/layers.1/gateway/Sigmoid_output_0: 3c00540f
/seg_model/dfine_model/decoder/decoder/layers.2/cross_attn/Softmax_output_0: 3bc645cc
/seg_model/dfine_model/decoder/decoder/layers.2/cross_attn/Reshape_1_output_0: 3df4f548
ONNXTRT_Broadcast_2978_output: 3be59022
/seg_model/dfine_model/decoder/decoder/layers.2/cross_attn/Unsqueeze_4_output_0: 3c020cba
/seg_model/dfine_model/decoder/decoder/layers.1/cross_attn/Reshape_3_output_0: 3cc5d485
/seg_model/dfine_model/decoder/decoder/lqe_layers.5/reg_conf/layers.1/MatMul_output_0: 3b840699
/seg_model/backbone/stem/Pad_1_output_0: 3c8917a5
/seg_model/backbone/stem/stem2b/conv/Conv_output_0: 3c33dd7a
/seg_model/backbone/stem/stem2b/bn/Mul_output_0: 3ce40c00
/seg_model/backbone/stem/stem2b/bn/Add_output_0: 3cc986a8
/seg_model/backbone/stem/stem2b/act/Relu_output_0: 3cc118fa
/seg_model/backbone/stem/pool/MaxPool_output_0: 3c8ae1d2
/seg_model/backbone/stem/Concat_2_output_0: 3cc0563b
/seg_model/backbone/stem/stem3/conv/Conv_output_0: 3d57608a
/seg_model/backbone/stem/stem3/bn/Mul_output_0: 3ca8e27f
/seg_model/backbone/stem/stem3/bn/Add_output_0: 3c98709e
/seg_model/backbone/stem/stem3/act/Relu_output_0: 3c8a55ae
/seg_model/backbone/stem/stem4/conv/Conv_output_0: 3c6aeb5f
/seg_model/backbone/stem/stem4/bn/Mul_output_0: 3d1b26f2
/seg_model/backbone/stem/stem4/bn/Add_output_0: 3cea9d63
/seg_model/backbone/stem/stem4/act/Relu_output_0: 3cda74aa
/seg_model/backbone/stages.0/blocks/blocks.0/layers.0/conv/Conv_output_0: 3d0414fb
/seg_model/backbone/stages.0/blocks/blocks.0/layers.0/bn/Mul_output_0: 3e08a3ee
/seg_model/backbone/stages.0/blocks/blocks.0/layers.0/bn/Add_output_0: 3e00f10c
/seg_model/backbone/stages.0/blocks/blocks.0/layers.0/act/Relu_output_0: 3d60d4db
/seg_model/backbone/stages.0/blocks/blocks.0/layers.1/conv/Conv_output_0: 3d1b55cf
/seg_model/backbone/stages.0/blocks/blocks.0/layers.1/bn/Mul_output_0: 3e0e0f74
/seg_model/backbone/stages.0/blocks/blocks.0/layers.1/bn/Add_output_0: 3dd4a90d
/seg_model/backbone/stages.0/blocks/blocks.0/layers.1/act/Relu_output_0: 3d9b8da6
/seg_model/backbone/stages.0/blocks/blocks.0/layers.2/conv/Conv_output_0: 3d06ec38
/seg_model/backbone/stages.0/blocks/blocks.0/layers.2/bn/Mul_output_0: 3d9bb897
/seg_model/backbone/stages.0/blocks/blocks.0/layers.2/bn/Add_output_0: 3d78655a
/seg_model/backbone/stages.0/blocks/blocks.0/layers.2/act/Relu_output_0: 3d4e7b50
/seg_model/backbone/stages.0/blocks/blocks.0/layers.3/conv/Conv_output_0: 3d101b09
/seg_model/backbone/stages.0/blocks/blocks.0/layers.3/bn/Mul_output_0: 3df628cb
/seg_model/backbone/stages.0/blocks/blocks.0/layers.3/bn/Add_output_0: 3d8a6a8d
/seg_model/backbone/stages.0/blocks/blocks.0/layers.3/act/Relu_output_0: 3d283f8c
/seg_model/backbone/stages.0/blocks/blocks.0/layers.4/conv/Conv_output_0: 3cca7aee
/seg_model/backbone/stages.0/blocks/blocks.0/layers.4/bn/Mul_output_0: 3d6d3416
/seg_model/backbone/stages.0/blocks/blocks.0/layers.4/bn/Add_output_0: 3d5fd473
/seg_model/backbone/stages.0/blocks/blocks.0/layers.4/act/Relu_output_0: 3d3872b8
/seg_model/backbone/stages.0/blocks/blocks.0/layers.5/conv/Conv_output_0: 3c8e0098
/seg_model/backbone/stages.0/blocks/blocks.0/layers.5/bn/Mul_output_0: 3db7aeed
/seg_model/backbone/stages.0/blocks/blocks.0/layers.5/bn/Add_output_0: 3d9c2ed8
/seg_model/backbone/stages.0/blocks/blocks.0/layers.5/act/Relu_output_0: 3d78d0f6
/seg_model/backbone/stages.0/blocks/blocks.0/Concat_output_0: 3d4a549a
/seg_model/backbone/stages.0/blocks/blocks.0/aggregation/aggregation.0/conv/Conv_output_0: 3d5cb570
/seg_model/backbone/stages.0/blocks/blocks.0/aggregation/aggregation.0/bn/Mul_output_0: 3e7ae547
/seg_model/backbone/stages.0/blocks/blocks.0/aggregation/aggregation.0/bn/Add_output_0: 3e6b04ab
/seg_model/backbone/stages.0/blocks/blocks.0/aggregation/aggregation.0/act/Relu_output_0: 3e6b477c
/seg_model/backbone/stages.0/blocks/blocks.0/aggregation/aggregation.1/conv/Conv_output_0: 3e003f19
/seg_model/backbone/stages.0/blocks/blocks.0/aggregation/aggregation.1/bn/Mul_output_0: 3e2b3096
/seg_model/backbone/stages.0/blocks/blocks.0/aggregation/aggregation.1/bn/Add_output_0: 3ddf85a4
/seg_model/backbone/stages.0/blocks/blocks.0/aggregation/aggregation.1/act/Relu_output_0: 3e03cf26
/seg_model/backbone/stages.1/downsample/conv/Conv_output_0: 3d81b5df
/seg_model/backbone/stages.1/downsample/bn/Mul_output_0: 3e4237ee
/seg_model/backbone/stages.1/downsample/bn/Add_output_0: 3dff737d
/seg_model/backbone/stages.1/blocks/blocks.0/layers.0/conv/Conv_output_0: 3df313fc
/seg_model/backbone/stages.1/blocks/blocks.0/layers.0/bn/Mul_output_0: 3e47a358
/seg_model/backbone/stages.1/blocks/blocks.0/layers.0/bn/Add_output_0: 3e5b12d7
/seg_model/backbone/stages.1/blocks/blocks.0/layers.0/act/Relu_output_0: 3e2f765a
/seg_model/backbone/stages.1/blocks/blocks.0/layers.1/conv/Conv_output_0: 3d96cfa2
/seg_model/backbone/stages.1/blocks/blocks.0/layers.1/bn/Mul_output_0: 3e0918d7
/seg_model/backbone/stages.1/blocks/blocks.0/layers.1/bn/Add_output_0: 3e00182d
/seg_model/backbone/stages.1/blocks/blocks.0/layers.1/act/Relu_output_0: 3db3d6ec
/seg_model/backbone/stages.1/blocks/blocks.0/layers.2/conv/Conv_output_0: 3d21f003
/seg_model/backbone/stages.1/blocks/blocks.0/layers.2/bn/Mul_output_0: 3e1e9b56
/seg_model/backbone/stages.1/blocks/blocks.0/layers.2/bn/Add_output_0: 3e09fe30
/seg_model/backbone/stages.1/blocks/blocks.0/layers.2/act/Relu_output_0: 3d9d33e6
/seg_model/backbone/stages.1/blocks/blocks.0/layers.3/conv/Conv_output_0: 3ce6d9f4
/seg_model/backbone/stages.1/blocks/blocks.0/layers.3/bn/Mul_output_0: 3dc7a09d
/seg_model/backbone/stages.1/blocks/blocks.0/layers.3/bn/Add_output_0: 3d9d8f8f
/seg_model/backbone/stages.1/blocks/blocks.0/layers.3/act/Relu_output_0: 3d9deedf
/seg_model/backbone/stages.1/blocks/blocks.0/layers.4/conv/Conv_output_0: 3cd4eef5
/seg_model/backbone/stages.1/blocks/blocks.0/layers.4/bn/Mul_output_0: 3dfa27a8
/seg_model/backbone/stages.1/blocks/blocks.0/layers.4/bn/Add_output_0: 3dc1c2b5
/seg_model/backbone/stages.1/blocks/blocks.0/layers.4/act/Relu_output_0: 3db07f0c
/seg_model/backbone/stages.1/blocks/blocks.0/layers.5/conv/Conv_output_0: 3cea40a4
/seg_model/backbone/stages.1/blocks/blocks.0/layers.5/bn/Mul_output_0: 3e207cf6
/seg_model/backbone/stages.1/blocks/blocks.0/layers.5/bn/Add_output_0: 3e1efbfb
/seg_model/backbone/stages.1/blocks/blocks.0/layers.5/act/Relu_output_0: 3dd2234c
/seg_model/backbone/stages.1/blocks/blocks.0/Concat_output_0: 3e322837
/seg_model/backbone/stages.1/blocks/blocks.0/aggregation/aggregation.0/conv/Conv_output_0: 3e0cc567
/seg_model/backbone/stages.1/blocks/blocks.0/aggregation/aggregation.0/bn/Mul_output_0: 3e1c23bb
/seg_model/backbone/stages.1/blocks/blocks.0/aggregation/aggregation.0/bn/Add_output_0: 3e042886
/seg_model/backbone/stages.1/blocks/blocks.0/aggregation/aggregation.0/act/Relu_output_0: 3e07660f
/seg_model/backbone/stages.1/blocks/blocks.0/aggregation/aggregation.1/conv/Conv_output_0: 3dd6e8a8
/seg_model/backbone/stages.1/blocks/blocks.0/aggregation/aggregation.1/bn/Mul_output_0: 3e3472d2
/seg_model/backbone/stages.1/blocks/blocks.0/aggregation/aggregation.1/bn/Add_output_0: 3e1eed36
/seg_model/backbone/stages.1/blocks/blocks.0/aggregation/aggregation.1/act/Relu_output_0: 3e2516aa
/seg_model/backbone/stages.1/blocks/blocks.1/layers.0/conv/Conv_output_0: 3dfdf11c
/seg_model/backbone/stages.1/blocks/blocks.1/layers.0/bn/Mul_output_0: 3e782ae6
/seg_model/backbone/stages.1/blocks/blocks.1/layers.0/bn/Add_output_0: 3e6e1a6c
/seg_model/backbone/stages.1/blocks/blocks.1/layers.0/act/Relu_output_0: 3e69640e
/seg_model/backbone/stages.1/blocks/blocks.1/layers.1/conv/Conv_output_0: 3da8436e
/seg_model/backbone/stages.1/blocks/blocks.1/layers.1/bn/Mul_output_0: 3ee0f93e
/seg_model/backbone/stages.1/blocks/blocks.1/layers.1/bn/Add_output_0: 3ed4b2b5
/seg_model/backbone/stages.1/blocks/blocks.1/layers.1/act/Relu_output_0: 3e11f02c
/seg_model/backbone/stages.1/blocks/blocks.1/layers.2/conv/Conv_output_0: 3db57f37
/seg_model/backbone/stages.1/blocks/blocks.1/layers.2/bn/Mul_output_0: 3e24635b
/seg_model/backbone/stages.1/blocks/blocks.1/layers.2/bn/Add_output_0: 3e0cf22e
/seg_model/backbone/stages.1/blocks/blocks.1/layers.2/act/Relu_output_0: 3e09835d
/seg_model/backbone/stages.1/blocks/blocks.1/layers.3/conv/Conv_output_0: 3d325375
/seg_model/backbone/stages.1/blocks/blocks.1/layers.3/bn/Mul_output_0: 3e285883
/seg_model/backbone/stages.1/blocks/blocks.1/layers.3/bn/Add_output_0: 3e07e2c2
/seg_model/backbone/stages.1/blocks/blocks.1/layers.3/act/Relu_output_0: 3d95cce3
/seg_model/backbone/stages.1/blocks/blocks.1/layers.4/conv/Conv_output_0: 3cc8e48f
/seg_model/backbone/stages.1/blocks/blocks.1/layers.4/bn/Mul_output_0: 3dc43a15
/seg_model/backbone/stages.1/blocks/blocks.1/layers.4/bn/Add_output_0: 3db218a8
/seg_model/backbone/stages.1/blocks/blocks.1/layers.4/act/Relu_output_0: 3dafc570
/seg_model/backbone/stages.1/blocks/blocks.1/layers.5/conv/Conv_output_0: 3cb9410e
/seg_model/backbone/stages.1/blocks/blocks.1/layers.5/bn/Mul_output_0: 3dfe82c2
/seg_model/backbone/stages.1/blocks/blocks.1/layers.5/bn/Add_output_0: 3df1074f
/seg_model/backbone/stages.1/blocks/blocks.1/layers.5/act/Relu_output_0: 3da80cde
/seg_model/backbone/stages.1/blocks/blocks.1/Concat_output_0: 3e47ee06
/seg_model/backbone/stages.1/blocks/blocks.1/aggregation/aggregation.0/conv/Conv_output_0: 3d4745e3
/seg_model/backbone/stages.1/blocks/blocks.1/aggregation/aggregation.0/bn/Mul_output_0: 3e8973bb
/seg_model/backbone/stages.1/blocks/blocks.1/aggregation/aggregation.0/bn/Add_output_0: 3e809f0b
/seg_model/backbone/stages.1/blocks/blocks.1/aggregation/aggregation.0/act/Relu_output_0: 3e80c20e
/seg_model/backbone/stages.1/blocks/blocks.1/aggregation/aggregation.1/conv/Conv_output_0: 3d11fe39
/seg_model/backbone/stages.1/blocks/blocks.1/aggregation/aggregation.1/bn/Mul_output_0: 3e889501
/seg_model/backbone/stages.1/blocks/blocks.1/aggregation/aggregation.1/bn/Add_output_0: 3e684565
/seg_model/backbone/stages.1/blocks/blocks.1/aggregation/aggregation.1/act/Relu_output_0: 3e3d0ec9
/seg_model/backbone/stages.1/blocks/blocks.1/Add_output_0: 3e3c9249
/seg_model/backbone/stages.2/downsample/conv/Conv_output_0: 3d687fbd
/seg_model/backbone/stages.2/downsample/bn/Mul_output_0: 3e9eaf42
/seg_model/backbone/stages.2/downsample/bn/Add_output_0: 3e8c5d65
/seg_model/backbone/stages.2/blocks/blocks.0/layers.0/conv1/conv/Conv_output_0: 3e4d4569
/seg_model/backbone/stages.2/blocks/blocks.0/layers.0/conv1/bn/Mul_output_0: 3e3ade37
/seg_model/backbone/stages.2/blocks/blocks.0/layers.0/conv1/bn/Add_output_0: 3e3e8002
/seg_model/backbone/stages.2/blocks/blocks.0/layers.0/conv2/conv/Conv_output_0: 3d76fd6c
/seg_model/backbone/stages.2/blocks/blocks.0/layers.0/conv2/bn/Mul_output_0: 3e98653c
/seg_model/backbone/stages.2/blocks/blocks.0/layers.0/conv2/bn/Add_output_0: 3e9a2b43
/seg_model/backbone/stages.2/blocks/blocks.0/layers.0/conv2/act/Relu_output_0: 3e9336e0
/seg_model/backbone/stages.2/blocks/blocks.0/layers.1/conv1/conv/Conv_output_0: 3dbd91c1
/seg_model/backbone/stages.2/blocks/blocks.0/layers.1/conv1/bn/Mul_output_0: 3e50f871
/seg_model/backbone/stages.2/blocks/blocks.0/layers.1/conv1/bn/Add_output_0: 3e4c5af8
/seg_model/backbone/stages.2/blocks/blocks.0/layers.1/conv2/conv/Conv_output_0: 3d459ef5
/seg_model/backbone/stages.2/blocks/blocks.0/layers.1/conv2/bn/Mul_output_0: 3e8f6991
/seg_model/backbone/stages.2/blocks/blocks.0/layers.1/conv2/bn/Add_output_0: 3e8efa5b
/seg_model/backbone/stages.2/blocks/blocks.0/layers.1/conv2/act/Relu_output_0: 3e604805
/seg_model/backbone/stages.2/blocks/blocks.0/layers.2/conv1/conv/Conv_output_0: 3d495378
/seg_model/backbone/stages.2/blocks/blocks.0/layers.2/conv1/bn/Mul_output_0: 3e2e5cf9
/seg_model/backbone/stages.2/blocks/blocks.0/layers.2/conv1/bn/Add_output_0: 3e2d42cc
/seg_model/backbone/stages.2/blocks/blocks.0/layers.2/conv2/conv/Conv_output_0: 3d190337
/seg_model/backbone/stages.2/blocks/blocks.0/layers.2/conv2/bn/Mul_output_0: 3e95f24b
/seg_model/backbone/stages.2/blocks/blocks.0/layers.2/conv2/bn/Add_output_0: 3e8f674f
/seg_model/backbone/stages.2/blocks/blocks.0/layers.2/conv2/act/Relu_output_0: 3e64c80f
/seg_model/backbone/stages.2/blocks/blocks.0/layers.3/conv1/conv/Conv_output_0: 3d2dc454
/seg_model/backbone/stages.2/blocks/blocks.0/layers.3/conv1/bn/Mul_output_0: 3e26faad
/seg_model/backbone/stages.2/blocks/blocks.0/layers.3/conv1/bn/Add_output_0: 3e22c41c
/seg_model/backbone/stages.2/blocks/blocks.0/layers.3/conv2/conv/Conv_output_0: 3d1a85a7
/seg_model/backbone/stages.2/blocks/blocks.0/layers.3/conv2/bn/Mul_output_0: 3e65ac97
/seg_model/backbone/stages.2/blocks/blocks.0/layers.3/conv2/bn/Add_output_0: 3e5ddfe4
/seg_model/backbone/stages.2/blocks/blocks.0/layers.3/conv2/act/Relu_output_0: 3e0b9e5e
/seg_model/backbone/stages.2/blocks/blocks.0/layers.4/conv1/conv/Conv_output_0: 3c98f5a0
/seg_model/backbone/stages.2/blocks/blocks.0/layers.4/conv1/bn/Mul_output_0: 3e22cb1e
/seg_model/backbone/stages.2/blocks/blocks.0/layers.4/conv1/bn/Add_output_0: 3e16579a
/seg_model/backbone/stages.2/blocks/blocks.0/layers.4/conv2/conv/Conv_output_0: 3cc3de08
/seg_model/backbone/stages.2/blocks/blocks.0/layers.4/conv2/bn/Mul_output_0: 3e1f21fd
/seg_model/backbone/stages.2/blocks/blocks.0/layers.4/conv2/bn/Add_output_0: 3e20354c
/seg_model/backbone/stages.2/blocks/blocks.0/layers.4/conv2/act/Relu_output_0: 3dd4e226
/seg_model/backbone/stages.2/blocks/blocks.0/layers.5/conv1/conv/Conv_output_0: 3c94530b
/seg_model/backbone/stages.2/blocks/blocks.0/layers.5/conv1/bn/Mul_output_0: 3e9e1260
/seg_model/backbone/stages.2/blocks/blocks.0/layers.5/conv1/bn/Add_output_0: 3e8186ae
/seg_model/backbone/stages.2/blocks/blocks.0/layers.5/conv2/conv/Conv_output_0: 3d28bf26
/seg_model/backbone/stages.2/blocks/blocks.0/layers.5/conv2/bn/Mul_output_0: 3ef8ee32
/seg_model/backbone/stages.2/blocks/blocks.0/layers.5/conv2/bn/Add_output_0: 3ef439ff
/seg_model/backbone/stages.2/blocks/blocks.0/layers.5/conv2/act/Relu_output_0: 3e2128e7
/seg_model/backbone/stages.2/blocks/blocks.0/Concat_output_0: 3e8c5d65
/seg_model/backbone/stages.2/blocks/blocks.0/aggregation/aggregation.0/conv/Conv_output_0: 3e31e2b3
/seg_model/backbone/stages.2/blocks/blocks.0/aggregation/aggregation.0/bn/Mul_output_0: 3e9221bb
/seg_model/backbone/stages.2/blocks/blocks.0/aggregation/aggregation.0/bn/Add_output_0: 3e96c41c
/seg_model/backbone/stages.2/blocks/blocks.0/aggregation/aggregation.0/act/Relu_output_0: 3e0b831e
/seg_model/backbone/stages.2/blocks/blocks.0/aggregation/aggregation.1/conv/Conv_output_0: 3d6bf06f
/seg_model/backbone/stages.2/blocks/blocks.0/aggregation/aggregation.1/bn/Mul_output_0: 3e2c9059
/seg_model/backbone/stages.2/blocks/blocks.0/aggregation/aggregation.1/bn/Add_output_0: 3e34c545
/seg_model/backbone/stages.2/blocks/blocks.0/aggregation/aggregation.1/act/Relu_output_0: 3d8f8634
/seg_model/backbone/stages.2/blocks/blocks.1/layers.0/conv1/conv/Conv_output_0: 3cebd4fa
/seg_model/backbone/stages.2/blocks/blocks.1/layers.0/conv1/bn/Mul_output_0: 3d8be44e
/seg_model/backbone/stages.2/blocks/blocks.1/layers.0/conv1/bn/Add_output_0: 3d9153f5
/seg_model/backbone/stages.2/blocks/blocks.1/layers.0/conv2/conv/Conv_output_0: 3cb08dc8
/seg_model/backbone/stages.2/blocks/blocks.1/layers.0/conv2/bn/Mul_output_0: 3dbf41ab
/seg_model/backbone/stages.2/blocks/blocks.1/layers.0/conv2/bn/Add_output_0: 3dd7d29f
/seg_model/backbone/stages.2/blocks/blocks.1/layers.0/conv2/act/Relu_output_0: 3dcd6afb
/seg_model/backbone/stages.2/blocks/blocks.1/layers.1/conv1/conv/Conv_output_0: 3cf1e482
/seg_model/backbone/stages.2/blocks/blocks.1/layers.1/conv1/bn/Mul_output_0: 3d9d4c5f
/seg_model/backbone/stages.2/blocks/blocks.1/layers.1/conv1/bn/Add_output_0: 3d79280e
/seg_model/backbone/stages.2/blocks/blocks.1/layers.1/conv2/conv/Conv_output_0: 3c8767e4
/seg_model/backbone/stages.2/blocks/blocks.1/layers.1/conv2/bn/Mul_output_0: 3ddaa411
/seg_model/backbone/stages.2/blocks/blocks.1/layers.1/conv2/bn/Add_output_0: 3dc52dde
/seg_model/backbone/stages.2/blocks/blocks.1/layers.1/conv2/act/Relu_output_0: 3db78a19
/seg_model/backbone/stages.2/blocks/blocks.1/layers.2/conv1/conv/Conv_output_0: 3c99aee6
/seg_model/backbone/stages.2/blocks/blocks.1/layers.2/conv1/bn/Mul_output_0: 3d7aaf2a
/seg_model/backbone/stages.2/blocks/blocks.1/layers.2/conv1/bn/Add_output_0: 3d7b8fdb
/seg_model/backbone/stages.2/blocks/blocks.1/layers.2/conv2/conv/Conv_output_0: 3c56af3e
/seg_model/backbone/stages.2/blocks/blocks.1/layers.2/conv2/bn/Mul_output_0: 3dd605ce
/seg_model/backbone/stages.2/blocks/blocks.1/layers.2/conv2/bn/Add_output_0: 3dd55109
/seg_model/backbone/stages.2/blocks/blocks.1/layers.2/conv2/act/Relu_output_0: 3dd33d0a
/seg_model/backbone/stages.2/blocks/blocks.1/layers.3/conv1/conv/Conv_output_0: 3c85a3cc
/seg_model/backbone/stages.2/blocks/blocks.1/layers.3/conv1/bn/Mul_output_0: 3d87f0b8
/seg_model/backbone/stages.2/blocks/blocks.1/layers.3/conv1/bn/Add_output_0: 3d8cad96
/seg_model/backbone/stages.2/blocks/blocks.1/layers.3/conv2/conv/Conv_output_0: 3c570b7d
/seg_model/backbone/stages.2/blocks/blocks.1/layers.3/conv2/bn/Mul_output_0: 3dd0d277
/seg_model/backbone/stages.2/blocks/blocks.1/layers.3/conv2/bn/Add_output_0: 3dd0babb
/seg_model/backbone/stages.2/blocks/blocks.1/layers.3/conv2/act/Relu_output_0: 3dd0babb
/seg_model/backbone/stages.2/blocks/blocks.1/layers.4/conv1/conv/Conv_output_0: 3c6588cc
/seg_model/backbone/stages.2/blocks/blocks.1/layers.4/conv1/bn/Mul_output_0: 3d9bb980
/seg_model/backbone/stages.2/blocks/blocks.1/layers.4/conv1/bn/Add_output_0: 3d94304b
/seg_model/backbone/stages.2/blocks/blocks.1/layers.4/conv2/conv/Conv_output_0: 3c872670
/seg_model/backbone/stages.2/blocks/blocks.1/layers.4/conv2/bn/Mul_output_0: 3e26991e
/seg_model/backbone/stages.2/blocks/blocks.1/layers.4/conv2/bn/Add_output_0: 3df93d5d
/seg_model/backbone/stages.2/blocks/blocks.1/layers.4/conv2/act/Relu_output_0: 3db856d9
/seg_model/backbone/stages.2/blocks/blocks.1/layers.5/conv1/conv/Conv_output_0: 3c3934d6
/seg_model/backbone/stages.2/blocks/blocks.1/layers.5/conv1/bn/Mul_output_0: 3dc30e45
/seg_model/backbone/stages.2/blocks/blocks.1/layers.5/conv1/bn/Add_output_0: 3dafe2dd
/seg_model/backbone/stages.2/blocks/blocks.1/layers.5/conv2/conv/Conv_output_0: 3c7d8076
/seg_model/backbone/stages.2/blocks/blocks.1/layers.5/conv2/bn/Mul_output_0: 3e07efad
/seg_model/backbone/stages.2/blocks/blocks.1/layers.5/conv2/bn/Add_output_0: 3e0204f7
/seg_model/backbone/stages.2/blocks/blocks.1/layers.5/conv2/act/Relu_output_0: 3de3b882
/seg_model/backbone/stages.2/blocks/blocks.1/Concat_output_0: 3dc32f42
/seg_model/backbone/stages.2/blocks/blocks.1/aggregation/aggregation.0/conv/Conv_output_0: 3d39be35
/seg_model/backbone/stages.2/blocks/blocks.1/aggregation/aggregation.0/bn/Mul_output_0: 3dfb83cf
/seg_model/backbone/stages.2/blocks/blocks.1/aggregation/aggregation.0/bn/Add_output_0: 3e0d10cc
/seg_model/backbone/stages.2/blocks/blocks.1/aggregation/aggregation.0/act/Relu_output_0: 3dc97b00
/seg_model/backbone/stages.2/blocks/blocks.1/aggregation/aggregation.1/conv/Conv_output_0: 3caf2b34
/seg_model/backbone/stages.2/blocks/blocks.1/aggregation/aggregation.1/bn/Mul_output_0: 3da9fff5
/seg_model/backbone/stages.2/blocks/blocks.1/aggregation/aggregation.1/bn/Add_output_0: 3d8b2a61
/seg_model/backbone/stages.2/blocks/blocks.1/aggregation/aggregation.1/act/Relu_output_0: 3d8cb38f
/seg_model/backbone/stages.2/blocks/blocks.1/Add_output_0: 3da290c5
/seg_model/backbone/stages.2/blocks/blocks.2/layers.0/conv1/conv/Conv_output_0: 3d05eb9f
/seg_model/backbone/stages.2/blocks/blocks.2/layers.0/conv1/bn/Mul_output_0: 3d9a47f9
/seg_model/backbone/stages.2/blocks/blocks.2/layers.0/conv1/bn/Add_output_0: 3d92cc3b
/seg_model/backbone/stages.2/blocks/blocks.2/layers.0/conv2/conv/Conv_output_0: 3c8b6ab4
/seg_model/backbone/stages.2/blocks/blocks.2/layers.0/conv2/bn/Mul_output_0: 3e1e1233
/seg_model/backbone/stages.2/blocks/blocks.2/layers.0/conv2/bn/Add_output_0: 3e1ae59a
/seg_model/backbone/stages.2/blocks/blocks.2/layers.0/conv2/act/Relu_output_0: 3de84536
/seg_model/backbone/stages.2/blocks/blocks.2/layers.1/conv1/conv/Conv_output_0: 3c8f18b4
/seg_model/backbone/stages.2/blocks/blocks.2/layers.1/conv1/bn/Mul_output_0: 3da42ced
/seg_model/backbone/stages.2/blocks/blocks.2/layers.1/conv1/bn/Add_output_0: 3d9c8d93
/seg_model/backbone/stages.2/blocks/blocks.2/layers.1/conv2/conv/Conv_output_0: 3c765ffb
/seg_model/backbone/stages.2/blocks/blocks.2/layers.1/conv2/bn/Mul_output_0: 3dd5c6c8
/seg_model/backbone/stages.2/blocks/blocks.2/layers.1/conv2/bn/Add_output_0: 3dd4d1bc
/seg_model/backbone/stages.2/blocks/blocks.2/layers.1/conv2/act/Relu_output_0: 3dd4d1bc
/seg_model/backbone/stages.2/blocks/blocks.2/layers.2/conv1/conv/Conv_output_0: 3cc3d750
/seg_model/backbone/stages.2/blocks/blocks.2/layers.2/conv1/bn/Mul_output_0: 3dc6a9fb
/seg_model/backbone/stages.2/blocks/blocks.2/layers.2/conv1/bn/Add_output_0: 3dbb3bf0
/seg_model/backbone/stages.2/blocks/blocks.2/layers.2/conv2/conv/Conv_output_0: 3c8def90
/seg_model/backbone/stages.2/blocks/blocks.2/layers.2/conv2/bn/Mul_output_0: 3ddb5c88
/seg_model/backbone/stages.2/blocks/blocks.2/layers.2/conv2/bn/Add_output_0: 3defe24e
/seg_model/backbone/stages.2/blocks/blocks.2/layers.2/conv2/act/Relu_output_0: 3d890c2d
/seg_model/backbone/stages.2/blocks/blocks.2/layers.3/conv1/conv/Conv_output_0: 3c39d570
/seg_model/backbone/stages.2/blocks/blocks.2/layers.3/conv1/bn/Mul_output_0: 3db7fc65
/seg_model/backbone/stages.2/blocks/blocks.2/layers.3/conv1/bn/Add_output_0: 3da860e6
/seg_model/backbone/stages.2/blocks/blocks.2/layers.3/conv2/conv/Conv_output_0: 3c736b7e
/seg_model/backbone/stages.2/blocks/blocks.2/layers.3/conv2/bn/Mul_output_0: 3da57983
/seg_model/backbone/stages.2/blocks/blocks.2/layers.3/conv2/bn/Add_output_0: 3d975f14
/seg_model/backbone/stages.2/blocks/blocks.2/layers.3/conv2/act/Relu_output_0: 3d834bb4
/seg_model/backbone/stages.2/blocks/blocks.2/layers.4/conv1/conv/Conv_output_0: 3c14d11f
/seg_model/backbone/stages.2/blocks/blocks.2/layers.4/conv1/bn/Mul_output_0: 3dc70824
/seg_model/backbone/stages.2/blocks/blocks.2/layers.4/conv1/bn/Add_output_0: 3da86060
/seg_model/backbone/stages.2/blocks/blocks.2/layers.4/conv2/conv/Conv_output_0: 3c647d4b
/seg_model/backbone/stages.2/blocks/blocks.2/layers.4/conv2/bn/Mul_output_0: 3d745169
/seg_model/backbone/stages.2/blocks/blocks.2/layers.4/conv2/bn/Add_output_0: 3d670941
/seg_model/backbone/stages.2/blocks/blocks.2/layers.4/conv2/act/Relu_output_0: 3d68c7a1
/seg_model/backbone/stages.2/blocks/blocks.2/layers.5/conv1/conv/Conv_output_0: 3c066170
/seg_model/backbone/stages.2/blocks/blocks.2/layers.5/conv1/bn/Mul_output_0: 3de77e24
/seg_model/backbone/stages.2/blocks/blocks.2/layers.5/conv1/bn/Add_output_0: 3d91292a
/seg_model/backbone/stages.2/blocks/blocks.2/layers.5/conv2/conv/Conv_output_0: 3ca3a715
/seg_model/backbone/stages.2/blocks/blocks.2/layers.5/conv2/bn/Mul_output_0: 3e19efd6
/seg_model/backbone/stages.2/blocks/blocks.2/layers.5/conv2/bn/Add_output_0: 3e0585f6
/seg_model/backbone/stages.2/blocks/blocks.2/layers.5/conv2/act/Relu_output_0: 3d9969cc
/seg_model/backbone/stages.2/blocks/blocks.2/Concat_output_0: 3da2e17f
/seg_model/backbone/stages.2/blocks/blocks.2/aggregation/aggregation.0/conv/Conv_output_0: 3d05949e
/seg_model/backbone/stages.2/blocks/blocks.2/aggregation/aggregation.0/bn/Mul_output_0: 3e2c441b
/seg_model/backbone/stages.2/blocks/blocks.2/aggregation/aggregation.0/bn/Add_output_0: 3e246ca6
/seg_model/backbone/stages.2/blocks/blocks.2/aggregation/aggregation.0/act/Relu_output_0: 3db3c3ff
/seg_model/backbone/stages.2/blocks/blocks.2/aggregation/aggregation.1/conv/Conv_output_0: 3c64823c
/seg_model/backbone/stages.2/blocks/blocks.2/aggregation/aggregation.1/bn/Mul_output_0: 3dd0916a
/seg_model/backbone/stages.2/blocks/blocks.2/aggregation/aggregation.1/bn/Add_output_0: 3df672c1
/seg_model/backbone/stages.2/blocks/blocks.2/aggregation/aggregation.1/act/Relu_output_0: 3dc0cbd7
/seg_model/backbone/stages.2/blocks/blocks.2/Add_output_0: 3dac8eb6
/seg_model/backbone/stages.2/blocks/blocks.3/layers.0/conv1/conv/Conv_output_0: 3d14e39d
/seg_model/backbone/stages.2/blocks/blocks.3/layers.0/conv1/bn/Mul_output_0: 3daca90b
/seg_model/backbone/stages.2/blocks/blocks.3/layers.0/conv1/bn/Add_output_0: 3d9e8606
/seg_model/backbone/stages.2/blocks/blocks.3/layers.0/conv2/conv/Conv_output_0: 3c9a0d7e
/seg_model/backbone/stages.2/blocks/blocks.3/layers.0/conv2/bn/Mul_output_0: 3df4a69c
/seg_model/backbone/stages.2/blocks/blocks.3/layers.0/conv2/bn/Add_output_0: 3deca3a6
/seg_model/backbone/stages.2/blocks/blocks.3/layers.0/conv2/act/Relu_output_0: 3dcb6dc8
/seg_model/backbone/stages.2/blocks/blocks.3/layers.1/conv1/conv/Conv_output_0: 3ca6c1c2
/seg_model/backbone/stages.2/blocks/blocks.3/layers.1/conv1/bn/Mul_output_0: 3dad1cbe
/seg_model/backbone/stages.2/blocks/blocks.3/layers.1/conv1/bn/Add_output_0: 3d9d31a3
/seg_model/backbone/stages.2/blocks/blocks.3/layers.1/conv2/conv/Conv_output_0: 3c78ab9c
/seg_model/backbone/stages.2/blocks/blocks.3/layers.1/conv2/bn/Mul_output_0: 3dbe4a47
/seg_model/backbone/stages.2/blocks/blocks.3/layers.1/conv2/bn/Add_output_0: 3dccc386
/seg_model/backbone/stages.2/blocks/blocks.3/layers.1/conv2/act/Relu_output_0: 3daf0654
/seg_model/backbone/stages.2/blocks/blocks.3/layers.2/conv1/conv/Conv_output_0: 3c468f23
/seg_model/backbone/stages.2/blocks/blocks.3/layers.2/conv1/bn/Mul_output_0: 3dc3d33f
/seg_model/backbone/stages.2/blocks/blocks.3/layers.2/conv1/bn/Add_output_0: 3dbfd6ec
/seg_model/backbone/stages.2/blocks/blocks.3/layers.2/conv2/conv/Conv_output_0: 3c844ecc
/seg_model/backbone/stages.2/blocks/blocks.3/layers.2/conv2/bn/Mul_output_0: 3daa901c
/seg_model/backbone/stages.2/blocks/blocks.3/layers.2/conv2/bn/Add_output_0: 3daa27c3
/seg_model/backbone/stages.2/blocks/blocks.3/layers.2/conv2/act/Relu_output_0: 3da18389
/seg_model/backbone/stages.2/blocks/blocks.3/layers.3/conv1/conv/Conv_output_0: 3c5a1743
/seg_model/backbone/stages.2/blocks/blocks.3/layers.3/conv1/bn/Mul_output_0: 3dc3787a
/seg_model/backbone/stages.2/blocks/blocks.3/layers.3/conv1/bn/Add_output_0: 3dbb18f2
/seg_model/backbone/stages.2/blocks/blocks.3/layers.3/conv2/conv/Conv_output_0: 3c836649
/seg_model/backbone/stages.2/blocks/blocks.3/layers.3/conv2/bn/Mul_output_0: 3dc28c58
/seg_model/backbone/stages.2/blocks/blocks.3/layers.3/conv2/bn/Add_output_0: 3ddb6b8a
/seg_model/backbone/stages.2/blocks/blocks.3/layers.3/conv2/act/Relu_output_0: 3dbcb7e4
/seg_model/backbone/stages.2/blocks/blocks.3/layers.4/conv1/conv/Conv_output_0: 3c56bb6d
/seg_model/backbone/stages.2/blocks/blocks.3/layers.4/conv1/bn/Mul_output_0: 3dc5a8d1
/seg_model/backbone/stages.2/blocks/blocks.3/layers.4/conv1/bn/Add_output_0: 3dba42fc
/seg_model/backbone/stages.2/blocks/blocks.3/layers.4/conv2/conv/Conv_output_0: 3c8bee67
/seg_model/backbone/stages.2/blocks/blocks.3/layers.4/conv2/bn/Mul_output_0: 3dd6b074
/seg_model/backbone/stages.2/blocks/blocks.3/layers.4/conv2/bn/Add_output_0: 3df9e12b
/seg_model/backbone/stages.2/blocks/blocks.3/layers.4/conv2/act/Relu_output_0: 3dcccbc4
/seg_model/backbone/stages.2/blocks/blocks.3/layers.5/conv1/conv/Conv_output_0: 3c72e417
/seg_model/backbone/stages.2/blocks/blocks.3/layers.5/conv1/bn/Mul_output_0: 3deea4e7
/seg_model/backbone/stages.2/blocks/blocks.3/layers.5/conv1/bn/Add_output_0: 3ddf82ca
/seg_model/backbone/stages.2/blocks/blocks.3/layers.5/conv2/conv/Conv_output_0: 3ca2857c
/seg_model/backbone/stages.2/blocks/blocks.3/layers.5/conv2/bn/Mul_output_0: 3e15d9ea
/seg_model/backbone/stages.2/blocks/blocks.3/layers.5/conv2/bn/Add_output_0: 3e181d16
/seg_model/backbone/stages.2/blocks/blocks.3/layers.5/conv2/act/Relu_output_0: 3de83262
/seg_model/backbone/stages.2/blocks/blocks.3/Concat_output_0: 3dcba0ba
/seg_model/backbone/stages.2/blocks/blocks.3/aggregation/aggregation.0/conv/Conv_output_0: 3d320914
/seg_model/backbone/stages.2/blocks/blocks.3/aggregation/aggregation.0/bn/Mul_output_0: 3e4358b4
/seg_model/backbone/stages.2/blocks/blocks.3/aggregation/aggregation.0/bn/Add_output_0: 3e2f56c8
/seg_model/backbone/stages.2/blocks/blocks.3/aggregation/aggregation.0/act/Relu_output_0: 3de84f19
/seg_model/backbone/stages.2/blocks/blocks.3/aggregation/aggregation.1/conv/Conv_output_0: 3c9247e2
/seg_model/backbone/stages.2/blocks/blocks.3/aggregation/aggregation.1/bn/Mul_output_0: 3e136308
/seg_model/backbone/stages.2/blocks/blocks.3/aggregation/aggregation.1/bn/Add_output_0: 3e0e113f
/seg_model/backbone/stages.2/blocks/blocks.3/aggregation/aggregation.1/act/Relu_output_0: 3df985c5
/seg_model/backbone/stages.2/blocks/blocks.3/Add_output_0: 3df9387a
/seg_model/backbone/stages.2/blocks/blocks.4/layers.0/conv1/conv/Conv_output_0: 3d2fff46
/seg_model/backbone/stages.2/blocks/blocks.4/layers.0/conv1/bn/Mul_output_0: 3dd0d7fd
/seg_model/backbone/stages.2/blocks/blocks.4/layers.0/conv1/bn/Add_output_0: 3dc354c8
/seg_model/backbone/stages.2/blocks/blocks.4/layers.0/conv2/conv/Conv_output_0: 3c92a4a8
/seg_model/backbone/stages.2/blocks/blocks.4/layers.0/conv2/bn/Mul_output_0: 3e19e876
/seg_model/backbone/stages.2/blocks/blocks.4/layers.0/conv2/bn/Add_output_0: 3e1d3f52
/seg_model/backbone/stages.2/blocks/blocks.4/layers.0/conv2/act/Relu_output_0: 3e130123
/seg_model/backbone/stages.2/blocks/blocks.4/layers.1/conv1/conv/Conv_output_0: 3cc0ffb7
/seg_model/backbone/stages.2/blocks/blocks.4/layers.1/conv1/bn/Mul_output_0: 3dcafe82
/seg_model/backbone/stages.2/blocks/blocks.4/layers.1/conv1/bn/Add_output_0: 3dc5f33f
/seg_model/backbone/stages.2/blocks/blocks.4/layers.1/conv2/conv/Conv_output_0: 3c7cbb27
/seg_model/backbone/stages.2/blocks/blocks.4/layers.1/conv2/bn/Mul_output_0: 3e036a7b
/seg_model/backbone/stages.2/blocks/blocks.4/layers.1/conv2/bn/Add_output_0: 3e07467f
/seg_model/backbone/stages.2/blocks/blocks.4/layers.1/conv2/act/Relu_output_0: 3e04f9ca
/seg_model/backbone/stages.2/blocks/blocks.4/layers.2/conv1/conv/Conv_output_0: 3c7c90d5
/seg_model/backbone/stages.2/blocks/blocks.4/layers.2/conv1/bn/Mul_output_0: 3dfac38f
/seg_model/backbone/stages.2/blocks/blocks.4/layers.2/conv1/bn/Add_output_0: 3debc032
/seg_model/backbone/stages.2/blocks/blocks.4/layers.2/conv2/conv/Conv_output_0: 3c9c6388
/seg_model/backbone/stages.2/blocks/blocks.4/layers.2/conv2/bn/Mul_output_0: 3def82dc
/seg_model/backbone/stages.2/blocks/blocks.4/layers.2/conv2/bn/Add_output_0: 3e022552
/seg_model/backbone/stages.2/blocks/blocks.4/layers.2/conv2/act/Relu_output_0: 3df2c819
/seg_model/backbone/stages.2/blocks/blocks.4/layers.3/conv1/conv/Conv_output_0: 3c7696ad
/seg_model/backbone/stages.2/blocks/blocks.4/layers.3/conv1/bn/Mul_output_0: 3e20abaf
/seg_model/backbone/stages.2/blocks/blocks.4/layers.3/conv1/bn/Add_output_0: 3e25ac6e
/seg_model/backbone/stages.2/blocks/blocks.4/layers.3/conv2/conv/Conv_output_0: 3c988bf7
/seg_model/backbone/stages.2/blocks/blocks.4/layers.3/conv2/bn/Mul_output_0: 3de24706
/seg_model/backbone/stages.2/blocks/blocks.4/layers.3/conv2/bn/Add_output_0: 3de82c0b
/seg_model/backbone/stages.2/blocks/blocks.4/layers.3/conv2/act/Relu_output_0: 3deafbdb
/seg_model/backbone/stages.2/blocks/blocks.4/layers.4/conv1/conv/Conv_output_0: 3c188bb2
/seg_model/backbone/stages.2/blocks/blocks.4/layers.4/conv1/bn/Mul_output_0: 3e3788ca
/seg_model/backbone/stages.2/blocks/blocks.4/layers.4/conv1/bn/Add_output_0: 3e1e5de3
/seg_model/backbone/stages.2/blocks/blocks.4/layers.4/conv2/conv/Conv_output_0: 3caafd98
/seg_model/backbone/stages.2/blocks/blocks.4/layers.4/conv2/bn/Mul_output_0: 3df0c092
/seg_model/backbone/stages.2/blocks/blocks.4/layers.4/conv2/bn/Add_output_0: 3de8b741
/seg_model/backbone/stages.2/blocks/blocks.4/layers.4/conv2/act/Relu_output_0: 3de8b741
/seg_model/backbone/stages.2/blocks/blocks.4/layers.5/conv1/conv/Conv_output_0: 3c188f93
/seg_model/backbone/stages.2/blocks/blocks.4/layers.5/conv1/bn/Mul_output_0: 3e889e39
/seg_model/backbone/stages.2/blocks/blocks.4/layers.5/conv1/bn/Add_output_0: 3e87435a
/seg_model/backbone/stages.2/blocks/blocks.4/layers.5/conv2/conv/Conv_output_0: 3cdeb714
/seg_model/backbone/stages.2/blocks/blocks.4/layers.5/conv2/bn/Mul_output_0: 3e8d85c7
/seg_model/backbone/stages.2/blocks/blocks.4/layers.5/conv2/bn/Add_output_0: 3e6b7a29
/seg_model/backbone/stages.2/blocks/blocks.4/layers.5/conv2/act/Relu_output_0: 3e2ed26f
/seg_model/backbone/stages.2/blocks/blocks.4/Concat_output_0: 3dfb23e1
/seg_model/backbone/stages.2/blocks/blocks.4/aggregation/aggregation.0/conv/Conv_output_0: 3d682216
/seg_model/backbone/stages.2/blocks/blocks.4/aggregation/aggregation.0/bn/Mul_output_0: 3e4c9d60
/seg_model/backbone/stages.2/blocks/blocks.4/aggregation/aggregation.0/bn/Add_output_0: 3e575db7
/seg_model/backbone/stages.2/blocks/blocks.4/aggregation/aggregation.0/act/Relu_output_0: 3dfda7dd
/seg_model/backbone/stages.2/blocks/blocks.4/aggregation/aggregation.1/conv/Conv_output_0: 3c8a68af
/seg_model/backbone/stages.2/blocks/blocks.4/aggregation/aggregation.1/bn/Mul_output_0: 3e7cf662
/seg_model/backbone/stages.2/blocks/blocks.4/aggregation/aggregation.1/bn/Add_output_0: 3e99717a
/seg_model/backbone/stages.2/blocks/blocks.4/aggregation/aggregation.1/act/Relu_output_0: 3e62acac
/seg_model/backbone/stages.2/blocks/blocks.4/Add_output_0: 3e433bfa
/seg_model/backbone/stages.3/downsample/conv/Conv_output_0: 3ce89c62
/seg_model/backbone/stages.3/downsample/bn/Mul_output_0: 3e070986
/seg_model/backbone/stages.3/downsample/bn/Add_output_0: 3e0bf0ee
/seg_model/backbone/stages.3/blocks/blocks.0/layers.0/conv1/conv/Conv_output_0: 3d618941
/seg_model/backbone/stages.3/blocks/blocks.0/layers.0/conv1/bn/Mul_output_0: 3dc8bd26
/seg_model/backbone/stages.3/blocks/blocks.0/layers.0/conv1/bn/Add_output_0: 3dd847a0
/seg_model/backbone/stages.3/blocks/blocks.0/layers.0/conv2/conv/Conv_output_0: 3ca3b747
/seg_model/backbone/stages.3/blocks/blocks.0/layers.0/conv2/bn/Mul_output_0: 3e6f8291
/seg_model/backbone/stages.3/blocks/blocks.0/layers.0/conv2/bn/Add_output_0: 3e726055
/seg_model/backbone/stages.3/blocks/blocks.0/layers.0/conv2/act/Relu_output_0: 3e399fe0
/seg_model/backbone/stages.3/blocks/blocks.0/layers.1/conv1/conv/Conv_output_0: 3cf6ef6f
/seg_model/backbone/stages.3/blocks/blocks.0/layers.1/conv1/bn/Mul_output_0: 3dd067ab
/seg_model/backbone/stages.3/blocks/blocks.0/layers.1/conv1/bn/Add_output_0: 3dc9dab5
/seg_model/backbone/stages.3/blocks/blocks.0/layers.1/conv2/conv/Conv_output_0: 3c90ef01
/seg_model/backbone/stages.3/blocks/blocks.0/layers.1/conv2/bn/Mul_output_0: 3e1b97cf
/seg_model/backbone/stages.3/blocks/blocks.0/layers.1/conv2/bn/Add_output_0: 3e23f8d5
/seg_model/backbone/stages.3/blocks/blocks.0/layers.1/conv2/act/Relu_output_0: 3e147edd
/seg_model/backbone/stages.3/blocks/blocks.0/layers.2/conv1/conv/Conv_output_0: 3ce6650f
/seg_model/backbone/stages.3/blocks/blocks.0/layers.2/conv1/bn/Mul_output_0: 3e09eef8
/seg_model/backbone/stages.3/blocks/blocks.0/layers.2/conv1/bn/Add_output_0: 3e010abd
/seg_model/backbone/stages.3/blocks/blocks.0/layers.2/conv2/conv/Conv_output_0: 3c9fa633
/seg_model/backbone/stages.3/blocks/blocks.0/layers.2/conv2/bn/Mul_output_0: 3e2c9443
/seg_model/backbone/stages.3/blocks/blocks.0/layers.2/conv2/bn/Add_output_0: 3e3783d8
/seg_model/backbone/stages.3/blocks/blocks.0/layers.2/conv2/act/Relu_output_0: 3defc6be
/seg_model/backbone/stages.3/blocks/blocks.0/layers.3/conv1/conv/Conv_output_0: 3c95b0b9
/seg_model/backbone/stages.3/blocks/blocks.0/layers.3/conv1/bn/Mul_output_0: 3dfcdb39
/seg_model/backbone/stages.3/blocks/blocks.0/layers.3/conv1/bn/Add_output_0: 3df88151
/seg_model/backbone/stages.3/blocks/blocks.0/layers.3/conv2/conv/Conv_output_0: 3c9a6ab9
/seg_model/backbone/stages.3/blocks/blocks.0/layers.3/conv2/bn/Mul_output_0: 3e13adb0
/seg_model/backbone/stages.3/blocks/blocks.0/layers.3/conv2/bn/Add_output_0: 3e17554a
/seg_model/backbone/stages.3/blocks/blocks.0/layers.3/conv2/act/Relu_output_0: 3dfc038a
/seg_model/backbone/stages.3/blocks/blocks.0/layers.4/conv1/conv/Conv_output_0: 3c8d9302
/seg_model/backbone/stages.3/blocks/blocks.0/layers.4/conv1/bn/Mul_output_0: 3e10178f
/seg_model/backbone/stages.3/blocks/blocks.0/layers.4/conv1/bn/Add_output_0: 3e057b65
/seg_model/backbone/stages.3/blocks/blocks.0/layers.4/conv2/conv/Conv_output_0: 3cb43894
/seg_model/backbone/stages.3/blocks/blocks.0/layers.4/conv2/bn/Mul_output_0: 3e204715
/seg_model/backbone/stages.3/blocks/blocks.0/layers.4/conv2/bn/Add_output_0: 3e295b54
/seg_model/backbone/stages.3/blocks/blocks.0/layers.4/conv2/act/Relu_output_0: 3df51bea
/seg_model/backbone/stages.3/blocks/blocks.0/layers.5/conv1/conv/Conv_output_0: 3c7a6abf
/seg_model/backbone/stages.3/blocks/blocks.0/layers.5/conv1/bn/Mul_output_0: 3e36ede1
/seg_model/backbone/stages.3/blocks/blocks.0/layers.5/conv1/bn/Add_output_0: 3e315600
/seg_model/backbone/stages.3/blocks/blocks.0/layers.5/conv2/conv/Conv_output_0: 3cc96805
/seg_model/backbone/stages.3/blocks/blocks.0/layers.5/conv2/bn/Mul_output_0: 3e8d63c4
/seg_model/backbone/stages.3/blocks/blocks.0/layers.5/conv2/bn/Add_output_0: 3e8a371f
/seg_model/backbone/stages.3/blocks/blocks.0/layers.5/conv2/act/Relu_output_0: 3e4ec74a
/seg_model/backbone/stages.3/blocks/blocks.0/Concat_output_0: 3e0e5259
/seg_model/backbone/stages.3/blocks/blocks.0/aggregation/aggregation.0/conv/Conv_output_0: 3e073ea3
/seg_model/backbone/stages.3/blocks/blocks.0/aggregation/aggregation.0/bn/Mul_output_0: 3e4bd194
/seg_model/backbone/stages.3/blocks/blocks.0/aggregation/aggregation.0/bn/Add_output_0: 3e5303a6
/seg_model/backbone/stages.3/blocks/blocks.0/aggregation/aggregation.0/act/Relu_output_0: 3e3ed729
/seg_model/backbone/stages.3/blocks/blocks.0/aggregation/aggregation.1/conv/Conv_output_0: 3d6cd653
/seg_model/backbone/stages.3/blocks/blocks.0/aggregation/aggregation.1/bn/Mul_output_0: 3ed6d26e
/seg_model/backbone/stages.3/blocks/blocks.0/aggregation/aggregation.1/bn/Add_output_0: 3ecfdcae
/seg_model/backbone/stages.3/blocks/blocks.0/aggregation/aggregation.1/act/Relu_output_0: 3eb7c75a
/seg_model/backbone/stages.3/blocks/blocks.1/layers.0/conv1/conv/Conv_output_0: 3d8d967a
/seg_model/backbone/stages.3/blocks/blocks.1/layers.0/conv1/bn/Mul_output_0: 3dc9c1ba
/seg_model/backbone/stages.3/blocks/blocks.1/layers.0/conv1/bn/Add_output_0: 3dcd3ba3
/seg_model/backbone/stages.3/blocks/blocks.1/layers.0/conv2/conv/Conv_output_0: 3c9e1b5b
/seg_model/backbone/stages.3/blocks/blocks.1/layers.0/conv2/bn/Mul_output_0: 3e6fd4d2
/seg_model/backbone/stages.3/blocks/blocks.1/layers.0/conv2/bn/Add_output_0: 3e80f4d7
/seg_model/backbone/stages.3/blocks/blocks.1/layers.0/conv2/act/Relu_output_0: 3e56e2ba
/seg_model/backbone/stages.3/blocks/blocks.1/layers.1/conv1/conv/Conv_output_0: 3d66d5e1
/seg_model/backbone/stages.3/blocks/blocks.1/layers.1/conv1/bn/Mul_output_0: 3def0bfb
/seg_model/backbone/stages.3/blocks/blocks.1/layers.1/conv1/bn/Add_output_0: 3de5877c
/seg_model/backbone/stages.3/blocks/blocks.1/layers.1/conv2/conv/Conv_output_0: 3cc8faf1
/seg_model/backbone/stages.3/blocks/blocks.1/layers.1/conv2/bn/Mul_output_0: 3e9186af
/seg_model/backbone/stages.3/blocks/blocks.1/layers.1/conv2/bn/Add_output_0: 3e8e4a48
/seg_model/backbone/stages.3/blocks/blocks.1/layers.1/conv2/act/Relu_output_0: 3e41cff2
/seg_model/backbone/stages.3/blocks/blocks.1/layers.2/conv1/conv/Conv_output_0: 3d0e199b
/seg_model/backbone/stages.3/blocks/blocks.1/layers.2/conv1/bn/Mul_output_0: 3e403808
/seg_model/backbone/stages.3/blocks/blocks.1/layers.2/conv1/bn/Add_output_0: 3e2704f6
/seg_model/backbone/stages.3/blocks/blocks.1/layers.2/conv2/conv/Conv_output_0: 3cc8e409
/seg_model/backbone/stages.3/blocks/blocks.1/layers.2/conv2/bn/Mul_output_0: 3e83f011
/seg_model/backbone/stages.3/blocks/blocks.1/layers.2/conv2/bn/Add_output_0: 3e85f644
/seg_model/backbone/stages.3/blocks/blocks.1/layers.2/conv2/act/Relu_output_0: 3e2f03ce
/seg_model/backbone/stages.3/blocks/blocks.1/layers.3/conv1/conv/Conv_output_0: 3cde4742
/seg_model/backbone/stages.3/blocks/blocks.1/layers.3/conv1/bn/Mul_output_0: 3e5fc2d0
/seg_model/backbone/stages.3/blocks/blocks.1/layers.3/conv1/bn/Add_output_0: 3e583c24
/seg_model/backbone/stages.3/blocks/blocks.1/layers.3/conv2/conv/Conv_output_0: 3d0178c7
/seg_model/backbone/stages.3/blocks/blocks.1/layers.3/conv2/bn/Mul_output_0: 3e93f191
/seg_model/backbone/stages.3/blocks/blocks.1/layers.3/conv2/bn/Add_output_0: 3e9aa81d
/seg_model/backbone/stages.3/blocks/blocks.1/layers.3/conv2/act/Relu_output_0: 3e40fe69
/seg_model/backbone/stages.3/blocks/blocks.1/layers.4/conv1/conv/Conv_output_0: 3ca2b61b
/seg_model/backbone/stages.3/blocks/blocks.1/layers.4/conv1/bn/Mul_output_0: 3e6c3ea9
/seg_model/backbone/stages.3/blocks/blocks.1/layers.4/conv1/bn/Add_output_0: 3e6f19fc
/seg_model/backbone/stages.3/blocks/blocks.1/layers.4/conv2/conv/Conv_output_0: 3cde266a
/seg_model/backbone/stages.3/blocks/blocks.1/layers.4/conv2/bn/Mul_output_0: 3e10a3f8
/seg_model/backbone/stages.3/blocks/blocks.1/layers.4/conv2/bn/Add_output_0: 3e00cf3c
/seg_model/backbone/stages.3/blocks/blocks.1/layers.4/conv2/act/Relu_output_0: 3dd03915
/seg_model/backbone/stages.3/blocks/blocks.1/layers.5/conv1/conv/Conv_output_0: 3c525704
/seg_model/backbone/stages.3/blocks/blocks.1/layers.5/conv1/bn/Mul_output_0: 3eca8d85
/seg_model/backbone/stages.3/blocks/blocks.1/layers.5/conv1/bn/Add_output_0: 3ed20c2b
/seg_model/backbone/stages.3/blocks/blocks.1/layers.5/conv2/conv/Conv_output_0: 3d301f1a
/seg_model/backbone/stages.3/blocks/blocks.1/layers.5/conv2/bn/Mul_output_0: 3f025150
/seg_model/backbone/stages.3/blocks/blocks.1/layers.5/conv2/bn/Add_output_0: 3f1b087b
/seg_model/backbone/stages.3/blocks/blocks.1/layers.5/conv2/act/Relu_output_0: 3e7af6c8
/seg_model/backbone/stages.3/blocks/blocks.1/Concat_output_0: 3e74d8de
/seg_model/backbone/stages.3/blocks/blocks.1/aggregation/aggregation.0/conv/Conv_output_0: 3e579c4c
/seg_model/backbone/stages.3/blocks/blocks.1/aggregation/aggregation.0/bn/Mul_output_0: 3e71b6e9
/seg_model/backbone/stages.3/blocks/blocks.1/aggregation/aggregation.0/bn/Add_output_0: 3e748814
/seg_model/backbone/stages.3/blocks/blocks.1/aggregation/aggregation.0/act/Relu_output_0: 3de00c55
/seg_model/backbone/stages.3/blocks/blocks.1/aggregation/aggregation.1/conv/Conv_output_0: 3d0791a3
/seg_model/backbone/stages.3/blocks/blocks.1/aggregation/aggregation.1/bn/Mul_output_0: 3f64c013
/seg_model/backbone/stages.3/blocks/blocks.1/aggregation/aggregation.1/bn/Add_output_0: 3f3bac6f
/seg_model/backbone/stages.3/blocks/blocks.1/aggregation/aggregation.1/act/Relu_output_0: 3f05d060
/seg_model/backbone/stages.3/blocks/blocks.1/Add_output_0: 3f147a0f
/seg_model/dfine_model/backbone/stem/stem1/conv/Conv_output_0: 3d483071
/seg_model/dfine_model/backbone/stem/stem1/bn/Mul_output_0: 3c574e6e
/seg_model/dfine_model/backbone/stem/stem1/bn/Add_output_0: 3c964b00
/seg_model/dfine_model/backbone/stem/stem1/act/Relu_output_0: 3c8ae1d2
ONNXTRT_Broadcast_2992_output: 3b93563c
/seg_model/seg_head/decoder/decoder.3/Conv_output_0: 3ddb3b38
/seg_model/dfine_model/decoder/decoder/layers.2/self_attn/Transpose_6_output_0: 3f1b093b
/seg_model/dfine_model/decoder/decoder/layers.3/cross_attn/Reshape_5_output_0: 3ccf227b
seg_model.dfine_model.decoder.decoder.layers.3.linear1.bias_output: 3c0403bf
seg_model.dfine_model.decoder.decoder.lqe_layers.5.reg_conf.layers.1.bias_output: 3a95c367
/seg_model/dfine_model/decoder/decoder/Sub_29_output_0: 3bfdcec9
onnx::Add_13584_output: 3b98ad86
/seg_model/dfine_model/decoder/decoder/layers.3/gateway/Concat_output_0: 3ca0fb50
/seg_model/dfine_model/decoder/decoder/layers.2/cross_attn/Sub_output_0: 3c95c967
/seg_model/dfine_model/decoder/decoder/layers.4/self_attn/Constant_7_output_0_output: 3ab67d3d
/seg_model/dfine_model/decoder/decoder/Cast_7_output_0: 3d810a14
/seg_model/dfine_model/decoder/decoder/Add_56_output_0: 3c8215f3
/seg_model/dfine_model/decoder/decoder/query_pos_head/layers.0_2/MatMul_output_0: 3d99851e
/seg_model/dfine_model/decoder/decoder/dec_bbox_head.2/layers.2/Add_output_0: 3e29c989
/seg_model/dfine_model/decoder/decoder/layers.2/linear1/Add_output_0: 3e908857
/seg_model/dfine_model/decoder/decoder/Gather_28_output_0: 3d67cf55
/seg_model/dfine_model/decoder/decoder/Div_9_output_0: 3a810a14
/seg_model/seg_head/aspp/Resize_output_0: 3d2571ec
/seg_model/dfine_model/decoder/decoder/layers.5/cross_attn/Concat_7_output_0: 3ccfcc9b
/seg_model/dfine_model/decoder/decoder/layers.5/cross_attn/GridSample_output_0: 3cb5b926
ONNXTRT_Broadcast_1666_output: 3c010a14
/seg_model/dfine_model/decoder/decoder/layers.2/cross_attn/Constant_22_output_0_output: 3c010a14
ONNXTRT_Broadcast_1499_output: 3d810a14
/seg_model/dfine_model/decoder/decoder/layers.2/cross_attn/Mul_3_output_0: 3c9061a9
/seg_model/dfine_model/decoder/decoder/layers.4/cross_attn/Sub_output_0: 3c43e149
ONNXTRT_Broadcast_1664_output: 3c810a14
/seg_model/dfine_model/decoder/decoder/layers.2/cross_attn/Transpose_output_0: 3c95c967
/seg_model/dfine_model/decoder/decoder/layers.2/cross_attn/Constant_21_output_0_output: 3c810a14
onnx::MatMul_13585_output: 3c2f085d
/seg_model/dfine_model/decoder/decoder/layers.2/self_attn/Add_output_0: 3e1c63fb
/seg_model/dfine_model/decoder/decoder/Sub_22_output_0: 3c012b04
/seg_model/seg_head/fpn/Add_1_output_0: 3f026272
/seg_model/seg_head/decoder/decoder.7/Conv_output_0: 3fa90e2b
/seg_model/dfine_model/decoder/decoder/layers.5/gateway/Slice_1_output_0: 3c00c540
ONNXTRT_Broadcast_1965_output: 3c01af80
/seg_model/dfine_model/decoder/decoder/layers.5/gateway/norm/LayerNormalization_output_0: 3dd7b2ea
/seg_model/dfine_model/decoder/decoder/integral_1/Softmax_output_0: 3bd46ba7
/seg_model/dfine_model/decoder/decoder/layers.4/self_attn/Transpose_6_output_0: 3e75ed02
/seg_model/dfine_model/decoder/decoder/lqe_layers.5/Concat_2_output_0: 3c017382
/seg_model/dfine_model/decoder/decoder/layers.5/Add_3_output_0: 3eeec8a7
seg_model.dfine_model.decoder.decoder.layers.4.self_attn.out_proj.bias_output: 3b84e06f
/seg_model/dfine_model/decoder/decoder/Add_39_output_0: 3f5571c6
/seg_model/dfine_model/decoder/decoder/layers.1/cross_attn/Reshape_4_output_0: 3c987888
ONNXTRT_Broadcast_1855_output: 3c80aefe
ONNXTRT_Broadcast_2297_output: 3c810a14
/seg_model/dfine_model/decoder/decoder/dec_bbox_head.2/layers.1/Add_output_0: 3e556636
ONNXTRT_Broadcast_1973_output: 3b2c06e0
onnx::Mul_13733_output: 3c1b9f94
/seg_model/dfine_model/decoder/decoder/Unsqueeze_28_output_0: 3c02121a
/seg_model/dfine_model/decoder/decoder/layers.2/cross_attn/Transpose_1_output_0: 3bc645cc
/seg_model/dfine_model/backbone/stem/Pad_output_0: 3c8ae1d2
/seg_model/dfine_model/backbone/stem/stem2a/conv/Conv_output_0: 3c8e3f10
/seg_model/dfine_model/backbone/stem/stem2a/bn/Mul_output_0: 3c9e52bd
/seg_model/dfine_model/backbone/stem/stem2a/bn/Add_output_0: 3c9a8444
/seg_model/dfine_model/backbone/stem/stem2a/act/Relu_output_0: 3c8917a5
/seg_model/dfine_model/decoder/decoder/Split_2_output_2: 3c0137de
/seg_model/dfine_model/decoder/decoder/layers.3/norm3/LayerNormalization_output_0: 3d01e6c4
ONNXTRT_Broadcast_2307_output: 3b26a223
/seg_model/dfine_model/decoder/decoder/Unsqueeze_41_output_0: 3c022066
onnx::MatMul_13552_output: 3cb73484
onnx::MatMul_13499_output: 3c91c385
ONNXTRT_Broadcast_2238_output: 3c37fd84
/seg_model/dfine_model/decoder/decoder/layers.3/self_attn/Reshape_3_output_0: 3dca15b2
/seg_model/dfine_model/decoder/decoder/layers.3/Add_output_0: 3d8cd96d
/seg_model/dfine_model/decoder/decoder/layers.3/self_attn/Softmax_output: 3ac1c387
/seg_model/dfine_model/decoder/decoder/lqe_layers.5/TopK_output_0: 3c01ec66
seg_model.dfine_model.decoder.dec_bbox_head.3.layers.0.bias_output: 3c01168f
onnx::Add_13580_output: 3c140b15
/seg_model/dfine_model/decoder/decoder/layers.2/cross_attn/Slice_1_output_0: 3bffae1c
seg_model.dfine_model.decoder.dec_bbox_head.2.layers.0.bias_output: 3c376dc9
/seg_model/dfine_model/decoder/decoder/layers.2/linear2/Add_output_0: 40c990aa
/seg_model/dfine_model/decoder/decoder/Sub_38_output_0: 3c012641
ONNXTRT_Broadcast_2142_output: 3b8bedd3
/seg_model/dfine_model/decoder/decoder/Split_5_output_3: 3c012ab0
onnx::MatMul_13642_output: 3b9c2b3c
onnx::MatMul_13614_output: 3c37fd84
/seg_model/seg_head/fpn/fpn_convs.2/fpn_convs.2.0/Conv_output_0: 3d612420
/seg_model/dfine_model/decoder/decoder/layers.2/cross_attn/Add_output_0: 3c1061a9
/seg_model/dfine_model/decoder/decoder/Gather_29_output_0: 3d5d7b76
/seg_model/dfine_model/decoder/decoder/query_pos_head/layers.0_4/MatMul_output_0: 3d99419e
/seg_model/dfine_model/decoder/decoder/Add_34_output_0: 3d946103
/seg_model/dfine_model/decoder/decoder/Unsqueeze_26_output_0: 3c0137de
ONNXTRT_Broadcast_2313_output: 3c816d1f
/seg_model/dfine_model/decoder/decoder/integral_3/MatMul_output: 3d667e09
ONNXTRT_Broadcast_2218_output: 3c0403bf
onnx::MatMul_13723_output: 3b93563c
/seg_model/dfine_model/decoder/decoder/layers.4/cross_attn/GridSample_output_0: 3cb66b5f
/seg_model/dfine_model/decoder/decoder/layers.2/activation/Relu_output_0: 3e86fa30
seg_model.dfine_model.decoder.decoder.layers.3.gateway.gate.bias_output: 3b8bedd3
/seg_model/dfine_model/decoder/decoder/Split_1_output_3: 3c012102
/seg_model/dfine_model/decoder/decoder/layers.5/cross_attn/Reshape_5_output_0: 3ccf227b
/seg_model/dfine_model/decoder/decoder/dec_bbox_head.5/layers.2/MatMul_output_0: 3d217ca1
/seg_model/dfine_model/decoder/decoder/layers.2/cross_attn/Mul_2_output_0: 3c13b036
/seg_model/dfine_model/decoder/decoder/integral_5/MatMul_output: 3d67cf55
/seg_model/dfine_model/decoder/decoder/Unsqueeze_60_output_0: 3d88c428
/seg_model/dfine_model/decoder/decoder/Add_41_output_0: 3db9ea77
/seg_model/dfine_model/decoder/decoder/Squeeze_21_output_0: 3bfdc6a5
/seg_model/dfine_model/decoder/decoder/dec_score_head.5/Add_output_0: 3d8817e3
/postprocessor/Split_output_2: 3c012641
ONNXTRT_Broadcast_1583_output: 3d30ffaa
/seg_model/dfine_model/decoder/decoder/layers.2/cross_attn/Reshape_output_0: 3e1cec60
ONNXTRT_Broadcast_1837_output: 3cb36d17
ONNXTRT_Broadcast_2601_output: 3bea703c
/seg_model/dfine_model/backbone/stem/Pad_1_output_0: 3c8917a5
/seg_model/dfine_model/backbone/stem/stem2b/conv/Conv_output_0: 3c33dd7a
/seg_model/dfine_model/backbone/stem/stem2b/bn/Mul_output_0: 3ce40c00
/seg_model/dfine_model/backbone/stem/stem2b/bn/Add_output_0: 3cc986a8
/seg_model/dfine_model/backbone/stem/stem2b/act/Relu_output_0: 3cc118fa
/seg_model/dfine_model/backbone/stem/pool/MaxPool_output_0: 3c8ae1d2
/seg_model/dfine_model/backbone/stem/Concat_2_output_0: 3cc0563b
/seg_model/dfine_model/backbone/stem/stem3/conv/Conv_output_0: 3d57608a
/seg_model/dfine_model/backbone/stem/stem3/bn/Mul_output_0: 3ca8e27f
/seg_model/dfine_model/backbone/stem/stem3/bn/Add_output_0: 3c98709e
/seg_model/dfine_model/backbone/stem/stem3/act/Relu_output_0: 3c8a55ae
/seg_model/dfine_model/backbone/stem/stem4/conv/Conv_output_0: 3c6aeb5f
/seg_model/dfine_model/backbone/stem/stem4/bn/Mul_output_0: 3d1b26f2
/seg_model/dfine_model/backbone/stem/stem4/bn/Add_output_0: 3cea9d63
/seg_model/dfine_model/backbone/stem/stem4/act/Relu_output_0: 3cda74aa
/seg_model/dfine_model/backbone/stages.0/blocks/blocks.0/layers.0/conv/Conv_output_0: 3d0414fb
/seg_model/dfine_model/backbone/stages.0/blocks/blocks.0/layers.0/bn/Mul_output_0: 3e08a3ee
/seg_model/dfine_model/backbone/stages.0/blocks/blocks.0/layers.0/bn/Add_output_0: 3e00f10c
/seg_model/dfine_model/backbone/stages.0/blocks/blocks.0/layers.0/act/Relu_output_0: 3d60d4db
/seg_model/dfine_model/backbone/stages.0/blocks/blocks.0/layers.1/conv/Conv_output_0: 3d1b55cf
/seg_model/dfine_model/backbone/stages.0/blocks/blocks.0/layers.1/bn/Mul_output_0: 3e0e0f74
/seg_model/dfine_model/backbone/stages.0/blocks/blocks.0/layers.1/bn/Add_output_0: 3dd4a90d
/seg_model/dfine_model/backbone/stages.0/blocks/blocks.0/layers.1/act/Relu_output_0: 3d9b8da6
/seg_model/dfine_model/backbone/stages.0/blocks/blocks.0/layers.2/conv/Conv_output_0: 3d06ec38
/seg_model/dfine_model/backbone/stages.0/blocks/blocks.0/layers.2/bn/Mul_output_0: 3d9bb897
/seg_model/dfine_model/backbone/stages.0/blocks/blocks.0/layers.2/bn/Add_output_0: 3d78655a
/seg_model/dfine_model/backbone/stages.0/blocks/blocks.0/layers.2/act/Relu_output_0: 3d4e7b50
/seg_model/dfine_model/backbone/stages.0/blocks/blocks.0/layers.3/conv/Conv_output_0: 3d101b09
/seg_model/dfine_model/backbone/stages.0/blocks/blocks.0/layers.3/bn/Mul_output_0: 3df628cb
/seg_model/dfine_model/backbone/stages.0/blocks/blocks.0/layers.3/bn/Add_output_0: 3d8a6a8d
/seg_model/dfine_model/backbone/stages.0/blocks/blocks.0/layers.3/act/Relu_output_0: 3d283f8c
/seg_model/dfine_model/backbone/stages.0/blocks/blocks.0/layers.4/conv/Conv_output_0: 3cca7aee
/seg_model/dfine_model/backbone/stages.0/blocks/blocks.0/layers.4/bn/Mul_output_0: 3d6d3416
/seg_model/dfine_model/backbone/stages.0/blocks/blocks.0/layers.4/bn/Add_output_0: 3d5fd473
/seg_model/dfine_model/backbone/stages.0/blocks/blocks.0/layers.4/act/Relu_output_0: 3d3872b8
/seg_model/dfine_model/backbone/stages.0/blocks/blocks.0/layers.5/conv/Conv_output_0: 3c8e0098
/seg_model/dfine_model/backbone/stages.0/blocks/blocks.0/layers.5/bn/Mul_output_0: 3db7aeed
/seg_model/dfine_model/backbone/stages.0/blocks/blocks.0/layers.5/bn/Add_output_0: 3d9c2ed8
/seg_model/dfine_model/backbone/stages.0/blocks/blocks.0/layers.5/act/Relu_output_0: 3d78d0f6
/seg_model/dfine_model/backbone/stages.0/blocks/blocks.0/Concat_output_0: 3d4a549a
/seg_model/dfine_model/backbone/stages.0/blocks/blocks.0/aggregation/aggregation.0/conv/Conv_output_0: 3d5cb570
/seg_model/dfine_model/backbone/stages.0/blocks/blocks.0/aggregation/aggregation.0/bn/Mul_output_0: 3e7ae547
/seg_model/dfine_model/backbone/stages.0/blocks/blocks.0/aggregation/aggregation.0/bn/Add_output_0: 3e6b04ab
/seg_model/dfine_model/backbone/stages.0/blocks/blocks.0/aggregation/aggregation.0/act/Relu_output_0: 3e6b477c
/seg_model/dfine_model/backbone/stages.0/blocks/blocks.0/aggregation/aggregation.1/conv/Conv_output_0: 3e003f19
/seg_model/dfine_model/backbone/stages.0/blocks/blocks.0/aggregation/aggregation.1/bn/Mul_output_0: 3e2b3096
/seg_model/dfine_model/backbone/stages.0/blocks/blocks.0/aggregation/aggregation.1/bn/Add_output_0: 3ddf85a4
/seg_model/dfine_model/backbone/stages.0/blocks/blocks.0/aggregation/aggregation.1/act/Relu_output_0: 3e03cf26
/seg_model/dfine_model/backbone/stages.1/downsample/conv/Conv_output_0: 3d81b5df
/seg_model/dfine_model/backbone/stages.1/downsample/bn/Mul_output_0: 3e4237ee
/seg_model/dfine_model/backbone/stages.1/downsample/bn/Add_output_0: 3dff737d
/seg_model/dfine_model/backbone/stages.1/blocks/blocks.0/layers.0/conv/Conv_output_0: 3df313fc
/seg_model/dfine_model/backbone/stages.1/blocks/blocks.0/layers.0/bn/Mul_output_0: 3e47a358
/seg_model/dfine_model/backbone/stages.1/blocks/blocks.0/layers.0/bn/Add_output_0: 3e5b12d7
/seg_model/dfine_model/backbone/stages.1/blocks/blocks.0/layers.0/act/Relu_output_0: 3e2f765a
/seg_model/dfine_model/backbone/stages.1/blocks/blocks.0/layers.1/conv/Conv_output_0: 3d96cfa2
/seg_model/dfine_model/backbone/stages.1/blocks/blocks.0/layers.1/bn/Mul_output_0: 3e0918d7
/seg_model/dfine_model/backbone/stages.1/blocks/blocks.0/layers.1/bn/Add_output_0: 3e00182d
/seg_model/dfine_model/backbone/stages.1/blocks/blocks.0/layers.1/act/Relu_output_0: 3db3d6ec
/seg_model/dfine_model/backbone/stages.1/blocks/blocks.0/layers.2/conv/Conv_output_0: 3d21f003
/seg_model/dfine_model/backbone/stages.1/blocks/blocks.0/layers.2/bn/Mul_output_0: 3e1e9b56
/seg_model/dfine_model/backbone/stages.1/blocks/blocks.0/layers.2/bn/Add_output_0: 3e09fe30
/seg_model/dfine_model/backbone/stages.1/blocks/blocks.0/layers.2/act/Relu_output_0: 3d9d33e6
/seg_model/dfine_model/backbone/stages.1/blocks/blocks.0/layers.3/conv/Conv_output_0: 3ce6d9f4
/seg_model/dfine_model/backbone/stages.1/blocks/blocks.0/layers.3/bn/Mul_output_0: 3dc7a09d
/seg_model/dfine_model/backbone/stages.1/blocks/blocks.0/layers.3/bn/Add_output_0: 3d9d8f8f
/seg_model/dfine_model/backbone/stages.1/blocks/blocks.0/layers.3/act/Relu_output_0: 3d9deedf
/seg_model/dfine_model/backbone/stages.1/blocks/blocks.0/layers.4/conv/Conv_output_0: 3cd4eef5
/seg_model/dfine_model/backbone/stages.1/blocks/blocks.0/layers.4/bn/Mul_output_0: 3dfa27a8
/seg_model/dfine_model/backbone/stages.1/blocks/blocks.0/layers.4/bn/Add_output_0: 3dc1c2b5
/seg_model/dfine_model/backbone/stages.1/blocks/blocks.0/layers.4/act/Relu_output_0: 3db07f0c
/seg_model/dfine_model/backbone/stages.1/blocks/blocks.0/layers.5/conv/Conv_output_0: 3cea40a4
/seg_model/dfine_model/backbone/stages.1/blocks/blocks.0/layers.5/bn/Mul_output_0: 3e207cf6
/seg_model/dfine_model/backbone/stages.1/blocks/blocks.0/layers.5/bn/Add_output_0: 3e1efbfb
/seg_model/dfine_model/backbone/stages.1/blocks/blocks.0/layers.5/act/Relu_output_0: 3dd2234c
/seg_model/dfine_model/backbone/stages.1/blocks/blocks.0/Concat_output_0: 3e322837
/seg_model/dfine_model/backbone/stages.1/blocks/blocks.0/aggregation/aggregation.0/conv/Conv_output_0: 3e0cc567
/seg_model/dfine_model/backbone/stages.1/blocks/blocks.0/aggregation/aggregation.0/bn/Mul_output_0: 3e1c23bb
/seg_model/dfine_model/backbone/stages.1/blocks/blocks.0/aggregation/aggregation.0/bn/Add_output_0: 3e042886
/seg_model/dfine_model/backbone/stages.1/blocks/blocks.0/aggregation/aggregation.0/act/Relu_output_0: 3e07660f
/seg_model/dfine_model/backbone/stages.1/blocks/blocks.0/aggregation/aggregation.1/conv/Conv_output_0: 3dd6e8a8
/seg_model/dfine_model/backbone/stages.1/blocks/blocks.0/aggregation/aggregation.1/bn/Mul_output_0: 3e3472d2
/seg_model/dfine_model/backbone/stages.1/blocks/blocks.0/aggregation/aggregation.1/bn/Add_output_0: 3e1eed36
/seg_model/dfine_model/backbone/stages.1/blocks/blocks.0/aggregation/aggregation.1/act/Relu_output_0: 3e2516aa
/seg_model/dfine_model/backbone/stages.1/blocks/blocks.1/layers.0/conv/Conv_output_0: 3dfdf11c
/seg_model/dfine_model/backbone/stages.1/blocks/blocks.1/layers.0/bn/Mul_output_0: 3e782ae6
/seg_model/dfine_model/backbone/stages.1/blocks/blocks.1/layers.0/bn/Add_output_0: 3e6e1a6c
/seg_model/dfine_model/backbone/stages.1/blocks/blocks.1/layers.0/act/Relu_output_0: 3e69640e
/seg_model/dfine_model/backbone/stages.1/blocks/blocks.1/layers.1/conv/Conv_output_0: 3da8436e
/seg_model/dfine_model/backbone/stages.1/blocks/blocks.1/layers.1/bn/Mul_output_0: 3ee0f93e
/seg_model/dfine_model/backbone/stages.1/blocks/blocks.1/layers.1/bn/Add_output_0: 3ed4b2b5
/seg_model/dfine_model/backbone/stages.1/blocks/blocks.1/layers.1/act/Relu_output_0: 3e11f02c
/seg_model/dfine_model/backbone/stages.1/blocks/blocks.1/layers.2/conv/Conv_output_0: 3db57f37
/seg_model/dfine_model/backbone/stages.1/blocks/blocks.1/layers.2/bn/Mul_output_0: 3e24635b
/seg_model/dfine_model/backbone/stages.1/blocks/blocks.1/layers.2/bn/Add_output_0: 3e0cf22e
/seg_model/dfine_model/backbone/stages.1/blocks/blocks.1/layers.2/act/Relu_output_0: 3e09835d
/seg_model/dfine_model/backbone/stages.1/blocks/blocks.1/layers.3/conv/Conv_output_0: 3d325375
/seg_model/dfine_model/backbone/stages.1/blocks/blocks.1/layers.3/bn/Mul_output_0: 3e285883
/seg_model/dfine_model/backbone/stages.1/blocks/blocks.1/layers.3/bn/Add_output_0: 3e07e2c2
/seg_model/dfine_model/backbone/stages.1/blocks/blocks.1/layers.3/act/Relu_output_0: 3d95cce3
/seg_model/dfine_model/backbone/stages.1/blocks/blocks.1/layers.4/conv/Conv_output_0: 3cc8e48f
/seg_model/dfine_model/backbone/stages.1/blocks/blocks.1/layers.4/bn/Mul_output_0: 3dc43a15
/seg_model/dfine_model/backbone/stages.1/blocks/blocks.1/layers.4/bn/Add_output_0: 3db218a8
/seg_model/dfine_model/backbone/stages.1/blocks/blocks.1/layers.4/act/Relu_output_0: 3dafc570
/seg_model/dfine_model/backbone/stages.1/blocks/blocks.1/layers.5/conv/Conv_output_0: 3cb9410e
/seg_model/dfine_model/backbone/stages.1/blocks/blocks.1/layers.5/bn/Mul_output_0: 3dfe82c2
/seg_model/dfine_model/backbone/stages.1/blocks/blocks.1/layers.5/bn/Add_output_0: 3df1074f
/seg_model/dfine_model/backbone/stages.1/blocks/blocks.1/layers.5/act/Relu_output_0: 3da80cde
/seg_model/dfine_model/backbone/stages.1/blocks/blocks.1/Concat_output_0: 3e47ee06
/seg_model/dfine_model/backbone/stages.1/blocks/blocks.1/aggregation/aggregation.0/conv/Conv_output_0: 3d4745e3
/seg_model/dfine_model/backbone/stages.1/blocks/blocks.1/aggregation/aggregation.0/bn/Mul_output_0: 3e8973bb
/seg_model/dfine_model/backbone/stages.1/blocks/blocks.1/aggregation/aggregation.0/bn/Add_output_0: 3e809f0b
/seg_model/dfine_model/backbone/stages.1/blocks/blocks.1/aggregation/aggregation.0/act/Relu_output_0: 3e80c20e
/seg_model/dfine_model/backbone/stages.1/blocks/blocks.1/aggregation/aggregation.1/conv/Conv_output_0: 3d11fe39
/seg_model/dfine_model/backbone/stages.1/blocks/blocks.1/aggregation/aggregation.1/bn/Mul_output_0: 3e889501
/seg_model/dfine_model/backbone/stages.1/blocks/blocks.1/aggregation/aggregation.1/bn/Add_output_0: 3e684565
/seg_model/dfine_model/backbone/stages.1/blocks/blocks.1/aggregation/aggregation.1/act/Relu_output_0: 3e3d0ec9
/seg_model/dfine_model/backbone/stages.1/blocks/blocks.1/Add_output_0: 3e3c9249
/seg_model/dfine_model/backbone/stages.2/downsample/conv/Conv_output_0: 3d687fbd
/seg_model/dfine_model/backbone/stages.2/downsample/bn/Mul_output_0: 3e9eaf42
/seg_model/dfine_model/backbone/stages.2/downsample/bn/Add_output_0: 3e8c5d65
/seg_model/dfine_model/backbone/stages.2/blocks/blocks.0/layers.0/conv1/conv/Conv_output_0: 3e4d4569
/seg_model/dfine_model/backbone/stages.2/blocks/blocks.0/layers.0/conv1/bn/Mul_output_0: 3e3ade37
/seg_model/dfine_model/backbone/stages.2/blocks/blocks.0/layers.0/conv1/bn/Add_output_0: 3e3e8002
/seg_model/dfine_model/backbone/stages.2/blocks/blocks.0/layers.0/conv2/conv/Conv_output_0: 3d76fd6c
/seg_model/dfine_model/backbone/stages.2/blocks/blocks.0/layers.0/conv2/bn/Mul_output_0: 3e98653c
/seg_model/dfine_model/backbone/stages.2/blocks/blocks.0/layers.0/conv2/bn/Add_output_0: 3e9a2b43
/seg_model/dfine_model/backbone/stages.2/blocks/blocks.0/layers.0/conv2/act/Relu_output_0: 3e9336e0
/seg_model/dfine_model/backbone/stages.2/blocks/blocks.0/layers.1/conv1/conv/Conv_output_0: 3dbd91c1
/seg_model/dfine_model/backbone/stages.2/blocks/blocks.0/layers.1/conv1/bn/Mul_output_0: 3e50f871
/seg_model/dfine_model/backbone/stages.2/blocks/blocks.0/layers.1/conv1/bn/Add_output_0: 3e4c5af8
/seg_model/dfine_model/backbone/stages.2/blocks/blocks.0/layers.1/conv2/conv/Conv_output_0: 3d459ef5
/seg_model/dfine_model/backbone/stages.2/blocks/blocks.0/layers.1/conv2/bn/Mul_output_0: 3e8f6991
/seg_model/dfine_model/backbone/stages.2/blocks/blocks.0/layers.1/conv2/bn/Add_output_0: 3e8efa5b
/seg_model/dfine_model/backbone/stages.2/blocks/blocks.0/layers.1/conv2/act/Relu_output_0: 3e604805
/seg_model/dfine_model/backbone/stages.2/blocks/blocks.0/layers.2/conv1/conv/Conv_output_0: 3d495378
/seg_model/dfine_model/backbone/stages.2/blocks/blocks.0/layers.2/conv1/bn/Mul_output_0: 3e2e5cf9
/seg_model/dfine_model/backbone/stages.2/blocks/blocks.0/layers.2/conv1/bn/Add_output_0: 3e2d42cc
/seg_model/dfine_model/backbone/stages.2/blocks/blocks.0/layers.2/conv2/conv/Conv_output_0: 3d190337
/seg_model/dfine_model/backbone/stages.2/blocks/blocks.0/layers.2/conv2/bn/Mul_output_0: 3e95f24b
/seg_model/dfine_model/backbone/stages.2/blocks/blocks.0/layers.2/conv2/bn/Add_output_0: 3e8f674f
/seg_model/dfine_model/backbone/stages.2/blocks/blocks.0/layers.2/conv2/act/Relu_output_0: 3e64c80f
/seg_model/dfine_model/backbone/stages.2/blocks/blocks.0/layers.3/conv1/conv/Conv_output_0: 3d2dc454
/seg_model/dfine_model/backbone/stages.2/blocks/blocks.0/layers.3/conv1/bn/Mul_output_0: 3e26faad
/seg_model/dfine_model/backbone/stages.2/blocks/blocks.0/layers.3/conv1/bn/Add_output_0: 3e22c41c
/seg_model/dfine_model/backbone/stages.2/blocks/blocks.0/layers.3/conv2/conv/Conv_output_0: 3d1a85a7
/seg_model/dfine_model/backbone/stages.2/blocks/blocks.0/layers.3/conv2/bn/Mul_output_0: 3e65ac97
/seg_model/dfine_model/backbone/stages.2/blocks/blocks.0/layers.3/conv2/bn/Add_output_0: 3e5ddfe4
/seg_model/dfine_model/backbone/stages.2/blocks/blocks.0/layers.3/conv2/act/Relu_output_0: 3e0b9e5e
/seg_model/dfine_model/backbone/stages.2/blocks/blocks.0/layers.4/conv1/conv/Conv_output_0: 3c98f5a0
/seg_model/dfine_model/backbone/stages.2/blocks/blocks.0/layers.4/conv1/bn/Mul_output_0: 3e22cb1e
/seg_model/dfine_model/backbone/stages.2/blocks/blocks.0/layers.4/conv1/bn/Add_output_0: 3e16579a
/seg_model/dfine_model/backbone/stages.2/blocks/blocks.0/layers.4/conv2/conv/Conv_output_0: 3cc3de08
/seg_model/dfine_model/backbone/stages.2/blocks/blocks.0/layers.4/conv2/bn/Mul_output_0: 3e1f21fd
/seg_model/dfine_model/backbone/stages.2/blocks/blocks.0/layers.4/conv2/bn/Add_output_0: 3e20354c
/seg_model/dfine_model/backbone/stages.2/blocks/blocks.0/layers.4/conv2/act/Relu_output_0: 3dd4e226
/seg_model/dfine_model/backbone/stages.2/blocks/blocks.0/layers.5/conv1/conv/Conv_output_0: 3c94530b
/seg_model/dfine_model/backbone/stages.2/blocks/blocks.0/layers.5/conv1/bn/Mul_output_0: 3e9e1260
/seg_model/dfine_model/backbone/stages.2/blocks/blocks.0/layers.5/conv1/bn/Add_output_0: 3e8186ae
/seg_model/dfine_model/backbone/stages.2/blocks/blocks.0/layers.5/conv2/conv/Conv_output_0: 3d28bf26
/seg_model/dfine_model/backbone/stages.2/blocks/blocks.0/layers.5/conv2/bn/Mul_output_0: 3ef8ee32
/seg_model/dfine_model/backbone/stages.2/blocks/blocks.0/layers.5/conv2/bn/Add_output_0: 3ef439ff
/seg_model/dfine_model/backbone/stages.2/blocks/blocks.0/layers.5/conv2/act/Relu_output_0: 3e2128e7
/seg_model/dfine_model/backbone/stages.2/blocks/blocks.0/Concat_output_0: 3e8c5d65
/seg_model/dfine_model/backbone/stages.2/blocks/blocks.0/aggregation/aggregation.0/conv/Conv_output_0: 3e31e2b3
/seg_model/dfine_model/backbone/stages.2/blocks/blocks.0/aggregation/aggregation.0/bn/Mul_output_0: 3e9221bb
/seg_model/dfine_model/backbone/stages.2/blocks/blocks.0/aggregation/aggregation.0/bn/Add_output_0: 3e96c41c
/seg_model/dfine_model/backbone/stages.2/blocks/blocks.0/aggregation/aggregation.0/act/Relu_output_0: 3e0b831e
/seg_model/dfine_model/backbone/stages.2/blocks/blocks.0/aggregation/aggregation.1/conv/Conv_output_0: 3d6bf06f
/seg_model/dfine_model/backbone/stages.2/blocks/blocks.0/aggregation/aggregation.1/bn/Mul_output_0: 3e2c9059
/seg_model/dfine_model/backbone/stages.2/blocks/blocks.0/aggregation/aggregation.1/bn/Add_output_0: 3e34c545
/seg_model/dfine_model/backbone/stages.2/blocks/blocks.0/aggregation/aggregation.1/act/Relu_output_0: 3d8f8634
/seg_model/dfine_model/backbone/stages.2/blocks/blocks.1/layers.0/conv1/conv/Conv_output_0: 3cebd4fa
/seg_model/dfine_model/backbone/stages.2/blocks/blocks.1/layers.0/conv1/bn/Mul_output_0: 3d8be44e
/seg_model/dfine_model/backbone/stages.2/blocks/blocks.1/layers.0/conv1/bn/Add_output_0: 3d9153f5
/seg_model/dfine_model/backbone/stages.2/blocks/blocks.1/layers.0/conv2/conv/Conv_output_0: 3cb08dc8
/seg_model/dfine_model/backbone/stages.2/blocks/blocks.1/layers.0/conv2/bn/Mul_output_0: 3dbf41ab
/seg_model/dfine_model/backbone/stages.2/blocks/blocks.1/layers.0/conv2/bn/Add_output_0: 3dd7d29f
/seg_model/dfine_model/backbone/stages.2/blocks/blocks.1/layers.0/conv2/act/Relu_output_0: 3dcd6afb
/seg_model/dfine_model/backbone/stages.2/blocks/blocks.1/layers.1/conv1/conv/Conv_output_0: 3cf1e482
/seg_model/dfine_model/backbone/stages.2/blocks/blocks.1/layers.1/conv1/bn/Mul_output_0: 3d9d4c5f
/seg_model/dfine_model/backbone/stages.2/blocks/blocks.1/layers.1/conv1/bn/Add_output_0: 3d79280e
/seg_model/dfine_model/backbone/stages.2/blocks/blocks.1/layers.1/conv2/conv/Conv_output_0: 3c8767e4
/seg_model/dfine_model/backbone/stages.2/blocks/blocks.1/layers.1/conv2/bn/Mul_output_0: 3ddaa411
/seg_model/dfine_model/backbone/stages.2/blocks/blocks.1/layers.1/conv2/bn/Add_output_0: 3dc52dde
/seg_model/dfine_model/backbone/stages.2/blocks/blocks.1/layers.1/conv2/act/Relu_output_0: 3db78a19
/seg_model/dfine_model/backbone/stages.2/blocks/blocks.1/layers.2/conv1/conv/Conv_output_0: 3c99aee6
/seg_model/dfine_model/backbone/stages.2/blocks/blocks.1/layers.2/conv1/bn/Mul_output_0: 3d7aaf2a
/seg_model/dfine_model/backbone/stages.2/blocks/blocks.1/layers.2/conv1/bn/Add_output_0: 3d7b8fdb
/seg_model/dfine_model/backbone/stages.2/blocks/blocks.1/layers.2/conv2/conv/Conv_output_0: 3c56af3e
/seg_model/dfine_model/backbone/stages.2/blocks/blocks.1/layers.2/conv2/bn/Mul_output_0: 3dd605ce
/seg_model/dfine_model/backbone/stages.2/blocks/blocks.1/layers.2/conv2/bn/Add_output_0: 3dd55109
/seg_model/dfine_model/backbone/stages.2/blocks/blocks.1/layers.2/conv2/act/Relu_output_0: 3dd33d0a
/seg_model/dfine_model/backbone/stages.2/blocks/blocks.1/layers.3/conv1/conv/Conv_output_0: 3c85a3cc
/seg_model/dfine_model/backbone/stages.2/blocks/blocks.1/layers.3/conv1/bn/Mul_output_0: 3d87f0b8
/seg_model/dfine_model/backbone/stages.2/blocks/blocks.1/layers.3/conv1/bn/Add_output_0: 3d8cad96
/seg_model/dfine_model/backbone/stages.2/blocks/blocks.1/layers.3/conv2/conv/Conv_output_0: 3c570b7d
/seg_model/dfine_model/backbone/stages.2/blocks/blocks.1/layers.3/conv2/bn/Mul_output_0: 3dd0d277
/seg_model/dfine_model/backbone/stages.2/blocks/blocks.1/layers.3/conv2/bn/Add_output_0: 3dd0babb
/seg_model/dfine_model/backbone/stages.2/blocks/blocks.1/layers.3/conv2/act/Relu_output_0: 3dd0babb
/seg_model/dfine_model/backbone/stages.2/blocks/blocks.1/layers.4/conv1/conv/Conv_output_0: 3c6588cc
/seg_model/dfine_model/backbone/stages.2/blocks/blocks.1/layers.4/conv1/bn/Mul_output_0: 3d9bb980
/seg_model/dfine_model/backbone/stages.2/blocks/blocks.1/layers.4/conv1/bn/Add_output_0: 3d94304b
/seg_model/dfine_model/backbone/stages.2/blocks/blocks.1/layers.4/conv2/conv/Conv_output_0: 3c872670
/seg_model/dfine_model/backbone/stages.2/blocks/blocks.1/layers.4/conv2/bn/Mul_output_0: 3e26991e
/seg_model/dfine_model/backbone/stages.2/blocks/blocks.1/layers.4/conv2/bn/Add_output_0: 3df93d5d
/seg_model/dfine_model/backbone/stages.2/blocks/blocks.1/layers.4/conv2/act/Relu_output_0: 3db856d9
/seg_model/dfine_model/backbone/stages.2/blocks/blocks.1/layers.5/conv1/conv/Conv_output_0: 3c3934d6
/seg_model/dfine_model/backbone/stages.2/blocks/blocks.1/layers.5/conv1/bn/Mul_output_0: 3dc30e45
/seg_model/dfine_model/backbone/stages.2/blocks/blocks.1/layers.5/conv1/bn/Add_output_0: 3dafe2dd
/seg_model/dfine_model/backbone/stages.2/blocks/blocks.1/layers.5/conv2/conv/Conv_output_0: 3c7d8076
/seg_model/dfine_model/backbone/stages.2/blocks/blocks.1/layers.5/conv2/bn/Mul_output_0: 3e07efad
/seg_model/dfine_model/backbone/stages.2/blocks/blocks.1/layers.5/conv2/bn/Add_output_0: 3e0204f7
/seg_model/dfine_model/backbone/stages.2/blocks/blocks.1/layers.5/conv2/act/Relu_output_0: 3de3b882
/seg_model/dfine_model/backbone/stages.2/blocks/blocks.1/Concat_output_0: 3dc32f42
/seg_model/dfine_model/backbone/stages.2/blocks/blocks.1/aggregation/aggregation.0/conv/Conv_output_0: 3d39be35
/seg_model/dfine_model/backbone/stages.2/blocks/blocks.1/aggregation/aggregation.0/bn/Mul_output_0: 3dfb83cf
/seg_model/dfine_model/backbone/stages.2/blocks/blocks.1/aggregation/aggregation.0/bn/Add_output_0: 3e0d10cc
/seg_model/dfine_model/backbone/stages.2/blocks/blocks.1/aggregation/aggregation.0/act/Relu_output_0: 3dc97b00
/seg_model/dfine_model/backbone/stages.2/blocks/blocks.1/aggregation/aggregation.1/conv/Conv_output_0: 3caf2b34
/seg_model/dfine_model/backbone/stages.2/blocks/blocks.1/aggregation/aggregation.1/bn/Mul_output_0: 3da9fff5
/seg_model/dfine_model/backbone/stages.2/blocks/blocks.1/aggregation/aggregation.1/bn/Add_output_0: 3d8b2a61
/seg_model/dfine_model/backbone/stages.2/blocks/blocks.1/aggregation/aggregation.1/act/Relu_output_0: 3d8cb38f
/seg_model/dfine_model/backbone/stages.2/blocks/blocks.1/Add_output_0: 3da290c5
/seg_model/dfine_model/backbone/stages.2/blocks/blocks.2/layers.0/conv1/conv/Conv_output_0: 3d05eb9f
/seg_model/dfine_model/backbone/stages.2/blocks/blocks.2/layers.0/conv1/bn/Mul_output_0: 3d9a47f9
/seg_model/dfine_model/backbone/stages.2/blocks/blocks.2/layers.0/conv1/bn/Add_output_0: 3d92cc3b
/seg_model/dfine_model/backbone/stages.2/blocks/blocks.2/layers.0/conv2/conv/Conv_output_0: 3c8b6ab4
/seg_model/dfine_model/backbone/stages.2/blocks/blocks.2/layers.0/conv2/bn/Mul_output_0: 3e1e1233
/seg_model/dfine_model/backbone/stages.2/blocks/blocks.2/layers.0/conv2/bn/Add_output_0: 3e1ae59a
/seg_model/dfine_model/backbone/stages.2/blocks/blocks.2/layers.0/conv2/act/Relu_output_0: 3de84536
/seg_model/dfine_model/backbone/stages.2/blocks/blocks.2/layers.1/conv1/conv/Conv_output_0: 3c8f18b4
/seg_model/dfine_model/backbone/stages.2/blocks/blocks.2/layers.1/conv1/bn/Mul_output_0: 3da42ced
/seg_model/dfine_model/backbone/stages.2/blocks/blocks.2/layers.1/conv1/bn/Add_output_0: 3d9c8d93
/seg_model/dfine_model/backbone/stages.2/blocks/blocks.2/layers.1/conv2/conv/Conv_output_0: 3c765ffb
/seg_model/dfine_model/backbone/stages.2/blocks/blocks.2/layers.1/conv2/bn/Mul_output_0: 3dd5c6c8
/seg_model/dfine_model/backbone/stages.2/blocks/blocks.2/layers.1/conv2/bn/Add_output_0: 3dd4d1bc
/seg_model/dfine_model/backbone/stages.2/blocks/blocks.2/layers.1/conv2/act/Relu_output_0: 3dd4d1bc
/seg_model/dfine_model/backbone/stages.2/blocks/blocks.2/layers.2/conv1/conv/Conv_output_0: 3cc3d750
/seg_model/dfine_model/backbone/stages.2/blocks/blocks.2/layers.2/conv1/bn/Mul_output_0: 3dc6a9fb
/seg_model/dfine_model/backbone/stages.2/blocks/blocks.2/layers.2/conv1/bn/Add_output_0: 3dbb3bf0
/seg_model/dfine_model/backbone/stages.2/blocks/blocks.2/layers.2/conv2/conv/Conv_output_0: 3c8def90
/seg_model/dfine_model/backbone/stages.2/blocks/blocks.2/layers.2/conv2/bn/Mul_output_0: 3ddb5c88
/seg_model/dfine_model/backbone/stages.2/blocks/blocks.2/layers.2/conv2/bn/Add_output_0: 3defe24e
/seg_model/dfine_model/backbone/stages.2/blocks/blocks.2/layers.2/conv2/act/Relu_output_0: 3d890c2d
/seg_model/dfine_model/backbone/stages.2/blocks/blocks.2/layers.3/conv1/conv/Conv_output_0: 3c39d570
/seg_model/dfine_model/backbone/stages.2/blocks/blocks.2/layers.3/conv1/bn/Mul_output_0: 3db7fc65
/seg_model/dfine_model/backbone/stages.2/blocks/blocks.2/layers.3/conv1/bn/Add_output_0: 3da860e6
/seg_model/dfine_model/backbone/stages.2/blocks/blocks.2/layers.3/conv2/conv/Conv_output_0: 3c736b7e
/seg_model/dfine_model/backbone/stages.2/blocks/blocks.2/layers.3/conv2/bn/Mul_output_0: 3da57983
/seg_model/dfine_model/backbone/stages.2/blocks/blocks.2/layers.3/conv2/bn/Add_output_0: 3d975f14
/seg_model/dfine_model/backbone/stages.2/blocks/blocks.2/layers.3/conv2/act/Relu_output_0: 3d834bb4
/seg_model/dfine_model/backbone/stages.2/blocks/blocks.2/layers.4/conv1/conv/Conv_output_0: 3c14d11f
/seg_model/dfine_model/backbone/stages.2/blocks/blocks.2/layers.4/conv1/bn/Mul_output_0: 3dc70824
/seg_model/dfine_model/backbone/stages.2/blocks/blocks.2/layers.4/conv1/bn/Add_output_0: 3da86060
/seg_model/dfine_model/backbone/stages.2/blocks/blocks.2/layers.4/conv2/conv/Conv_output_0: 3c647d4b
/seg_model/dfine_model/backbone/stages.2/blocks/blocks.2/layers.4/conv2/bn/Mul_output_0: 3d745169
/seg_model/dfine_model/backbone/stages.2/blocks/blocks.2/layers.4/conv2/bn/Add_output_0: 3d670941
/seg_model/dfine_model/backbone/stages.2/blocks/blocks.2/layers.4/conv2/act/Relu_output_0: 3d68c7a1
/seg_model/dfine_model/backbone/stages.2/blocks/blocks.2/layers.5/conv1/conv/Conv_output_0: 3c066170
/seg_model/dfine_model/backbone/stages.2/blocks/blocks.2/layers.5/conv1/bn/Mul_output_0: 3de77e24
/seg_model/dfine_model/backbone/stages.2/blocks/blocks.2/layers.5/conv1/bn/Add_output_0: 3d91292a
/seg_model/dfine_model/backbone/stages.2/blocks/blocks.2/layers.5/conv2/conv/Conv_output_0: 3ca3a715
/seg_model/dfine_model/backbone/stages.2/blocks/blocks.2/layers.5/conv2/bn/Mul_output_0: 3e19efd6
/seg_model/dfine_model/backbone/stages.2/blocks/blocks.2/layers.5/conv2/bn/Add_output_0: 3e0585f6
/seg_model/dfine_model/backbone/stages.2/blocks/blocks.2/layers.5/conv2/act/Relu_output_0: 3d9969cc
/seg_model/dfine_model/backbone/stages.2/blocks/blocks.2/Concat_output_0: 3da2e17f
/seg_model/dfine_model/backbone/stages.2/blocks/blocks.2/aggregation/aggregation.0/conv/Conv_output_0: 3d05949e
/seg_model/dfine_model/backbone/stages.2/blocks/blocks.2/aggregation/aggregation.0/bn/Mul_output_0: 3e2c441b
/seg_model/dfine_model/backbone/stages.2/blocks/blocks.2/aggregation/aggregation.0/bn/Add_output_0: 3e246ca6
/seg_model/dfine_model/backbone/stages.2/blocks/blocks.2/aggregation/aggregation.0/act/Relu_output_0: 3db3c3ff
/seg_model/dfine_model/backbone/stages.2/blocks/blocks.2/aggregation/aggregation.1/conv/Conv_output_0: 3c64823c
/seg_model/dfine_model/backbone/stages.2/blocks/blocks.2/aggregation/aggregation.1/bn/Mul_output_0: 3dd0916a
/seg_model/dfine_model/backbone/stages.2/blocks/blocks.2/aggregation/aggregation.1/bn/Add_output_0: 3df672c1
/seg_model/dfine_model/backbone/stages.2/blocks/blocks.2/aggregation/aggregation.1/act/Relu_output_0: 3dc0cbd7
/seg_model/dfine_model/backbone/stages.2/blocks/blocks.2/Add_output_0: 3dac8eb6
/seg_model/dfine_model/backbone/stages.2/blocks/blocks.3/layers.0/conv1/conv/Conv_output_0: 3d14e39d
/seg_model/dfine_model/backbone/stages.2/blocks/blocks.3/layers.0/conv1/bn/Mul_output_0: 3daca90b
/seg_model/dfine_model/backbone/stages.2/blocks/blocks.3/layers.0/conv1/bn/Add_output_0: 3d9e8606
/seg_model/dfine_model/backbone/stages.2/blocks/blocks.3/layers.0/conv2/conv/Conv_output_0: 3c9a0d7e
/seg_model/dfine_model/backbone/stages.2/blocks/blocks.3/layers.0/conv2/bn/Mul_output_0: 3df4a69c
/seg_model/dfine_model/backbone/stages.2/blocks/blocks.3/layers.0/conv2/bn/Add_output_0: 3deca3a6
/seg_model/dfine_model/backbone/stages.2/blocks/blocks.3/layers.0/conv2/act/Relu_output_0: 3dcb6dc8
/seg_model/dfine_model/backbone/stages.2/blocks/blocks.3/layers.1/conv1/conv/Conv_output_0: 3ca6c1c2
/seg_model/dfine_model/backbone/stages.2/blocks/blocks.3/layers.1/conv1/bn/Mul_output_0: 3dad1cbe
/seg_model/dfine_model/backbone/stages.2/blocks/blocks.3/layers.1/conv1/bn/Add_output_0: 3d9d31a3
/seg_model/dfine_model/backbone/stages.2/blocks/blocks.3/layers.1/conv2/conv/Conv_output_0: 3c78ab9c
/seg_model/dfine_model/backbone/stages.2/blocks/blocks.3/layers.1/conv2/bn/Mul_output_0: 3dbe4a47
