TRT-101100-EntropyCalibration2
images: 3caa54fc
onnx::Mul_13422_output: 3b2c06e0
onnx::Mul_13706: 3b2c06e0
onnx::Mul_13651: 3b2c06e0
onnx::Mul_13596: 3b2c06e0
onnx::Mul_13541: 3b2c06e0
onnx::Mul_13486: 3b2c06e0
onnx::Abs_13385_output: 3b810a14
onnx::Abs_13386: 3b810a14
onnx::Add_12023_output: 3e5f397d
onnx::Add_13333: 3e5f397d
onnx::Mul_12021_output: 3ef38860
onnx::Mul_13331: 3ef38860
onnx::Add_12013_output: 3c46f507
onnx::Add_13323: 3c46f507
onnx::Mul_12011_output: 3cc70e28
onnx::Mul_13321: 3cc70e28
onnx::Add_12003_output: 3c813949
onnx::Add_13313: 3c813949
onnx::Mul_12001_output: 3e44e2ae
onnx::Mul_13311: 3e44e2ae
onnx::Add_11993_output: 3cccc567
onnx::Add_13303: 3cccc567
onnx::Mul_11991_output: 3f371063
onnx::Mul_13301: 3f371063
onnx::Add_11983_output: 3c4c1ee9
onnx::Add_13293: 3c4c1ee9
onnx::Mul_11981_output: 3dd730a5
onnx::Mul_13291: 3dd730a5
onnx::Add_11973_output: 3c61c7cd
onnx::Add_13283: 3c61c7cd
onnx::Mul_11971_output: 3e5a848f
onnx::Mul_13281: 3e5a848f
onnx::Add_11963_output: 3cf7a103
onnx::Add_13273: 3cf7a103
onnx::Mul_11961_output: 3e191f70
onnx::Mul_13271: 3e191f70
onnx::Add_11953_output: 3c93d66b
onnx::Add_13263: 3c93d66b
onnx::Mul_11951_output: 3dfce121
onnx::Mul_13261: 3dfce121
onnx::Add_11943_output: 3c933ac4
onnx::Add_13253: 3c933ac4
onnx::Mul_11941_output: 3e2dd664
onnx::Mul_13251: 3e2dd664
onnx::Add_11933_output: 3cb7ea45
onnx::Add_13243: 3cb7ea45
onnx::Mul_11931_output: 3dbd1f09
onnx::Mul_13241: 3dbd1f09
onnx::Add_11923_output: 3cbc781a
onnx::Add_13233: 3cbc781a
onnx::Mul_11921_output: 3e2d48fa
onnx::Mul_13231: 3e2d48fa
onnx::Add_11913_output: 3cb2165f
onnx::Add_13223: 3cb2165f
onnx::Mul_11911_output: 3d33e583
onnx::Mul_13221: 3d33e583
onnx::Add_11903_output: 3cd04658
onnx::Add_13213: 3cd04658
onnx::Mul_11901_output: 3e145adb
onnx::Mul_13211: 3e145adb
onnx::Add_11893_output: 3c0ba7ca
onnx::Add_13203: 3c0ba7ca
onnx::Mul_11891_output: 3cb0ea58
onnx::Mul_13201: 3cb0ea58
onnx::Add_11883_output: 3d31d735
onnx::Add_13193: 3d31d735
onnx::Mul_11881_output: 3de7f3a9
onnx::Mul_13191: 3de7f3a9
onnx::Add_11873_output: 3cb19146
onnx::Add_13183: 3cb19146
onnx::Mul_11871_output: 3d0608f0
onnx::Mul_13181: 3d0608f0
onnx::Add_11863_output: 3c888b6e
onnx::Add_13173: 3c888b6e
onnx::Mul_11861_output: 3e198c65
onnx::Mul_13171: 3e198c65
onnx::Add_11853_output: 3c9160ed
onnx::Add_13163: 3c9160ed
onnx::Mul_11851_output: 3e39137f
onnx::Mul_13161: 3e39137f
onnx::Add_11843_output: 3cd5c405
onnx::Add_13153: 3cd5c405
onnx::Mul_11841_output: 3df34ab8
onnx::Mul_13151: 3df34ab8
onnx::Add_11833_output: 3cad0a15
onnx::Add_13143: 3cad0a15
onnx::Mul_11831_output: 3decabee
onnx::Mul_13141: 3decabee
onnx::Add_11823_output: 3c9a1ab3
onnx::Add_13133: 3c9a1ab3
onnx::Mul_11821_output: 3e0b7b34
onnx::Mul_13131: 3e0b7b34
onnx::Add_11813_output: 3c859c80
onnx::Add_13123: 3c859c80
onnx::Mul_11811_output: 3db8309f
onnx::Mul_13121: 3db8309f
onnx::Add_11803_output: 3c785710
onnx::Add_13113: 3c785710
onnx::Mul_11801_output: 3e0f1db1
onnx::Mul_13111: 3e0f1db1
onnx::Add_11793_output: 3ccbcfce
onnx::Add_13103: 3ccbcfce
onnx::Mul_11791_output: 3d9bc17f
onnx::Mul_13101: 3d9bc17f
onnx::Add_11783_output: 3d0c99de
onnx::Add_13093: 3d0c99de
onnx::Mul_11781_output: 3dffcd47
onnx::Mul_13091: 3dffcd47
onnx::Add_11773_output: 3cbfe692
onnx::Add_13083: 3cbfe692
onnx::Mul_11771_output: 3d450a4d
onnx::Mul_13081: 3d450a4d
onnx::Add_11763_output: 3cae621f
onnx::Add_13073: 3cae621f
onnx::Mul_11761_output: 3e1f4f2c
onnx::Mul_13071: 3e1f4f2c
onnx::Add_11753_output: 3c186907
onnx::Add_13063: 3c186907
onnx::Mul_11751_output: 3ca2416f
onnx::Mul_13061: 3ca2416f
onnx::Add_11743_output: 3cfef2c3
onnx::Add_13053: 3cfef2c3
onnx::Mul_11741_output: 3df73ec3
onnx::Mul_13051: 3df73ec3
onnx::Add_11733_output: 3d8cf501
onnx::Add_13043: 3d8cf501
onnx::Mul_11731_output: 3e7ea58d
onnx::Mul_13041: 3e7ea58d
onnx::Add_11723_output: 3cc2b6b7
onnx::Add_13033: 3cc2b6b7
onnx::Mul_11721_output: 3d21ac35
onnx::Mul_13031: 3d21ac35
onnx::Add_11713_output: 3bf46205
onnx::Add_13023: 3bf46205
onnx::Mul_11711_output: 3fe14208
onnx::Mul_13021: 3fe14208
onnx::Add_11703_output: 3c9acba0
onnx::Add_13013: 3c9acba0
onnx::Mul_11701_output: 401f621f
onnx::Mul_13011: 401f621f
onnx::Add_11693_output: 3c20d9be
onnx::Add_13003: 3c20d9be
onnx::Mul_11691_output: 3de8ba44
onnx::Mul_13001: 3de8ba44
onnx::Add_11683_output: 3c2a2057
onnx::Add_12993: 3c2a2057
onnx::Mul_11681_output: 3ebebcf1
onnx::Mul_12991: 3ebebcf1
onnx::Add_11673_output: 3c51c74e
onnx::Add_12983: 3c51c74e
onnx::Mul_11671_output: 3d91b6e9
onnx::Mul_12981: 3d91b6e9
onnx::Add_11663_output: 3c9f3b87
onnx::Add_12973: 3c9f3b87
onnx::Mul_11661_output: 3e2afd6d
onnx::Mul_12971: 3e2afd6d
onnx::Add_11653_output: 3c811725
onnx::Add_12963: 3c811725
onnx::Mul_11651_output: 3dd6c8e9
onnx::Mul_12961: 3dd6c8e9
onnx::Add_11643_output: 3c7db267
onnx::Add_12953: 3c7db267
onnx::Mul_11641_output: 3dce0ac7
onnx::Mul_12951: 3dce0ac7
onnx::Add_11633_output: 3c9b4f07
onnx::Add_12943: 3c9b4f07
onnx::Mul_11631_output: 3de7d713
onnx::Mul_12941: 3de7d713
onnx::Add_11623_output: 3cb4e823
onnx::Add_12933: 3cb4e823
onnx::Mul_11621_output: 3d3f790a
onnx::Mul_12931: 3d3f790a
onnx::Add_11613_output: 3d010349
onnx::Add_12923: 3d010349
onnx::Mul_11611_output: 3dcabc52
onnx::Mul_12921: 3dcabc52
onnx::Add_11603_output: 3c8e526d
onnx::Add_12913: 3c8e526d
onnx::Mul_11601_output: 3cdfc60c
onnx::Mul_12911: 3cdfc60c
onnx::Add_11593_output: 3cc54cc5
onnx::Add_12903: 3cc54cc5
onnx::Mul_11591_output: 3f24d9af
onnx::Mul_12901: 3f24d9af
onnx::Add_11583_output: 3ceeadec
onnx::Add_12893: 3ceeadec
onnx::Mul_11581_output: 3d3eafae
onnx::Mul_12891: 3d3eafae
onnx::Add_11573_output: 3cc1e83c
onnx::Add_12883: 3cc1e83c
onnx::Mul_11571_output: 3e336db5
onnx::Mul_12881: 3e336db5
onnx::Add_11563_output: 3cc7d41e
onnx::Add_12873: 3cc7d41e
onnx::Mul_11561_output: 3dc38063
onnx::Mul_12871: 3dc38063
onnx::Add_11553_output: 3c8646a8
onnx::Add_12863: 3c8646a8
onnx::Mul_11551_output: 3db3e081
onnx::Mul_12861: 3db3e081
onnx::Add_11543_output: 3c51bf44
onnx::Add_12853: 3c51bf44
onnx::Mul_11541_output: 3dda58a0
onnx::Mul_12851: 3dda58a0
onnx::Add_11533_output: 3cb5d06d
onnx::Add_12843: 3cb5d06d
onnx::Mul_11531_output: 3dc6485f
onnx::Mul_12841: 3dc6485f
onnx::Add_11523_output: 3c86dffb
onnx::Add_12833: 3c86dffb
onnx::Mul_11521_output: 3dbbb2ba
onnx::Mul_12831: 3dbbb2ba
onnx::Add_11513_output: 3cb0a2c2
onnx::Add_12823: 3cb0a2c2
onnx::Mul_11511_output: 3d888774
onnx::Mul_12821: 3d888774
onnx::Add_11503_output: 3c91d97c
onnx::Add_12813: 3c91d97c
onnx::Mul_11501_output: 3de70258
onnx::Mul_12811: 3de70258
onnx::Add_11493_output: 3c9bb889
onnx::Add_12803: 3c9bb889
onnx::Mul_11491_output: 3db3540d
onnx::Mul_12801: 3db3540d
onnx::Add_11483_output: 3cf5903f
onnx::Add_12793: 3cf5903f
onnx::Mul_11481_output: 3d608abc
onnx::Mul_12791: 3d608abc
onnx::Add_11473_output: 3d2117c8
onnx::Add_12783: 3d2117c8
onnx::Mul_11471_output: 3dbd448b
onnx::Mul_12781: 3dbd448b
onnx::Add_11463_output: 3cca91fc
onnx::Add_12773: 3cca91fc
onnx::Mul_11461_output: 3d087b43
onnx::Mul_12771: 3d087b43
onnx::Add_11453_output: 3c581afd
onnx::Add_12763: 3c581afd
onnx::Mul_11451_output: 3f0a606c
onnx::Mul_12761: 3f0a606c
onnx::Add_11443_output: 3cabb210
onnx::Add_12753: 3cabb210
onnx::Mul_11441_output: 3d6d791d
onnx::Mul_12751: 3d6d791d
onnx::Add_11433_output: 3cf92fb5
onnx::Add_12743: 3cf92fb5
onnx::Mul_11431_output: 3f2d1178
onnx::Mul_12741: 3f2d1178
onnx::Add_11423_output: 3cb4d7b4
onnx::Add_12733: 3cb4d7b4
onnx::Mul_11421_output: 401f6955
onnx::Mul_12731: 401f6955
onnx::Add_11413_output: 3c32ebf8
onnx::Add_12723: 3c32ebf8
onnx::Mul_11411_output: 3d8962d6
onnx::Mul_12721: 3d8962d6
onnx::Add_11403_output: 3cc3230c
onnx::Add_12713: 3cc3230c
onnx::Mul_11401_output: 3e294873
onnx::Mul_12711: 3e294873
onnx::Add_11393_output: 3c1aeef2
onnx::Add_12703: 3c1aeef2
onnx::Mul_11391_output: 3dbe34b2
onnx::Mul_12701: 3dbe34b2
onnx::Add_11383_output: 3c89967b
onnx::Add_12693: 3c89967b
onnx::Mul_11381_output: 3e21538a
onnx::Mul_12691: 3e21538a
onnx::Add_11373_output: 3c64d1ba
onnx::Add_12683: 3c64d1ba
onnx::Mul_11371_output: 3dbf8fdd
onnx::Mul_12681: 3dbf8fdd
onnx::Add_11363_output: 3c714686
onnx::Add_12673: 3c714686
onnx::Mul_11361_output: 3dd26dd5
onnx::Mul_12671: 3dd26dd5
onnx::Add_11353_output: 3cb2c085
onnx::Add_12663: 3cb2c085
onnx::Mul_11351_output: 3dd98346
onnx::Mul_12661: 3dd98346
onnx::Add_11343_output: 3cbd6d18
onnx::Add_12653: 3cbd6d18
onnx::Mul_11341_output: 3d8552d7
onnx::Mul_12651: 3d8552d7
onnx::Add_11333_output: 3cb7e6cd
onnx::Add_12643: 3cb7e6cd
onnx::Mul_11331_output: 3e097a78
onnx::Mul_12641: 3e097a78
onnx::Add_11323_output: 3ca110fe
onnx::Add_12633: 3ca110fe
onnx::Mul_11321_output: 3d1484df
onnx::Mul_12631: 3d1484df
onnx::Add_11313_output: 3cc3561c
onnx::Add_12623: 3cc3561c
onnx::Mul_11311_output: 3f2fe503
onnx::Mul_12621: 3f2fe503
onnx::Add_11303_output: 3cf717cf
onnx::Add_12613: 3cf717cf
onnx::Mul_11301_output: 3d452b7a
onnx::Mul_12611: 3d452b7a
onnx::Add_11293_output: 3ca2021d
onnx::Add_12603: 3ca2021d
onnx::Mul_11291_output: 3e4a7c80
onnx::Mul_12601: 3e4a7c80
onnx::Add_11283_output: 3c844e52
onnx::Add_12593: 3c844e52
onnx::Mul_11281_output: 3dc2442b
onnx::Mul_12591: 3dc2442b
onnx::Add_11273_output: 3cceb769
onnx::Add_12583: 3cceb769
onnx::Mul_11271_output: 3e020f41
onnx::Mul_12581: 3e020f41
onnx::Add_11263_output: 3c4979bd
onnx::Add_12573: 3c4979bd
onnx::Mul_11261_output: 3da9b68f
onnx::Mul_12571: 3da9b68f
onnx::Add_11253_output: 3cc8a2d7
onnx::Add_12563: 3cc8a2d7
onnx::Mul_11251_output: 3e00661c
onnx::Mul_12561: 3e00661c
onnx::Add_11243_output: 3c4b959f
onnx::Add_12553: 3c4b959f
onnx::Mul_11241_output: 3d6ca880
onnx::Mul_12551: 3d6ca880
onnx::Add_11233_output: 3ca4475c
onnx::Add_12543: 3ca4475c
onnx::Mul_11231_output: 3dfa7b8b
onnx::Mul_12541: 3dfa7b8b
onnx::Add_11223_output: 3c7f366a
onnx::Add_12533: 3c7f366a
onnx::Mul_11221_output: 3d52b4e0
onnx::Mul_12531: 3d52b4e0
onnx::Add_11213_output: 3cdbb4e3
onnx::Add_12523: 3cdbb4e3
onnx::Mul_11211_output: 3e0814df
onnx::Mul_12521: 3e0814df
onnx::Add_11203_output: 3cd52037
onnx::Add_12513: 3cd52037
onnx::Mul_11201_output: 3d22701e
onnx::Mul_12511: 3d22701e
onnx::Add_11193_output: 3d204ab8
onnx::Add_12503: 3d204ab8
onnx::Mul_11191_output: 3e020e04
onnx::Mul_12501: 3e020e04
onnx::Add_11183_output: 3ccba174
onnx::Add_12493: 3ccba174
onnx::Mul_11181_output: 3d2566c9
onnx::Mul_12491: 3d2566c9
onnx::Add_11173_output: 3cc692cd
onnx::Add_12483: 3cc692cd
onnx::Mul_11171_output: 3f5ab45e
onnx::Mul_12481: 3f5ab45e
onnx::Add_11163_output: 3d159a0a
onnx::Add_12473: 3d159a0a
onnx::Mul_11161_output: 3d150b99
onnx::Mul_12471: 3d150b99
onnx::Add_11153_output: 3d0d687b
onnx::Add_12463: 3d0d687b
onnx::Mul_11151_output: 3e9a2ff5
onnx::Mul_12461: 3e9a2ff5
onnx::Add_11143_output: 3cc83d42
onnx::Add_12453: 3cc83d42
onnx::Mul_11141_output: 3eb85e66
onnx::Mul_12451: 3eb85e66
onnx::Add_11133_output: 3c814397
onnx::Add_12443: 3c814397
onnx::Mul_11131_output: 3deb808c
onnx::Mul_12441: 3deb808c
onnx::Add_11123_output: 3c9f6ce8
onnx::Add_12433: 3c9f6ce8
onnx::Mul_11121_output: 3e40bb18
onnx::Mul_12431: 3e40bb18
onnx::Add_11113_output: 3cc9056d
onnx::Add_12423: 3cc9056d
onnx::Mul_11111_output: 3e117a0e
onnx::Mul_12421: 3e117a0e
onnx::Add_11103_output: 3caf3ac4
onnx::Add_12413: 3caf3ac4
onnx::Mul_11101_output: 3dca3027
onnx::Mul_12411: 3dca3027
onnx::Add_11093_output: 3cf4d5a4
onnx::Add_12403: 3cf4d5a4
onnx::Mul_11091_output: 3e1ce7d8
onnx::Mul_12401: 3e1ce7d8
onnx::Add_11083_output: 3c843cb1
onnx::Add_12393: 3c843cb1
onnx::Mul_11081_output: 3d681936
onnx::Mul_12391: 3d681936
onnx::Add_11073_output: 3d05826c
onnx::Add_12383: 3d05826c
onnx::Mul_11071_output: 3e0c9313
onnx::Mul_12381: 3e0c9313
onnx::Add_11063_output: 3cb52b3f
onnx::Add_12373: 3cb52b3f
onnx::Mul_11061_output: 3d155db5
onnx::Mul_12371: 3d155db5
onnx::Add_11053_output: 3d0119a5
onnx::Add_12363: 3d0119a5
onnx::Mul_11051_output: 3de6ba21
onnx::Mul_12361: 3de6ba21
onnx::Add_11043_output: 3c4c349d
onnx::Add_12353: 3c4c349d
onnx::Mul_11041_output: 3c81160f
onnx::Mul_12351: 3c81160f
onnx::Add_11033_output: 3d00799b
onnx::Add_12343: 3d00799b
onnx::Mul_11031_output: 3e66ae18
onnx::Mul_12341: 3e66ae18
onnx::Add_11023_output: 3d82203c
onnx::Add_12333: 3d82203c
onnx::Mul_11021_output: 3f48338e
onnx::Mul_12331: 3f48338e
onnx::Add_11013_output: 3d12a06a
onnx::Add_12323: 3d12a06a
onnx::Mul_11011_output: 3d7c77fa
onnx::Mul_12321: 3d7c77fa
onnx::Add_11003_output: 3cfe18ea
onnx::Add_12313: 3cfe18ea
onnx::Mul_11001_output: 3d9ee1c8
onnx::Mul_12311: 3d9ee1c8
onnx::Add_10993_output: 3cb6b400
onnx::Add_12303: 3cb6b400
onnx::Mul_10991_output: 3d28423a
onnx::Mul_12301: 3d28423a
onnx::Add_10983_output: 3d01a1e8
onnx::Add_12293: 3d01a1e8
onnx::Mul_10981_output: 3d247de4
onnx::Mul_12291: 3d247de4
onnx::Add_10973_output: 3d11f234
onnx::Add_12283: 3d11f234
onnx::Mul_10971_output: 3d0d9cd7
onnx::Mul_12281: 3d0d9cd7
onnx::Add_10963_output: 3cf1329f
onnx::Add_12273: 3cf1329f
onnx::Mul_10961_output: 3d42a814
onnx::Mul_12271: 3d42a814
onnx::Add_10953_output: 3cca2846
onnx::Add_12263: 3cca2846
onnx::Mul_10951_output: 3d16ddb5
onnx::Mul_12261: 3d16ddb5
onnx::Add_10943_output: 3d3c49cd
onnx::Add_12253: 3d3c49cd
onnx::Mul_10941_output: 3d391c78
onnx::Mul_12251: 3d391c78
onnx::Add_10933_output: 3d172d84
onnx::Add_12243: 3d172d84
onnx::Mul_10931_output: 3cf8ba6d
onnx::Mul_12241: 3cf8ba6d
onnx::Add_10923_output: 3d3627c3
onnx::Add_12233: 3d3627c3
onnx::Mul_10921_output: 3d8e061a
onnx::Mul_12231: 3d8e061a
onnx::Add_10913_output: 3d0e1564
onnx::Add_12223: 3d0e1564
onnx::Mul_10911_output: 3d7c970b
onnx::Mul_12221: 3d7c970b
onnx::Add_10903_output: 3d202567
onnx::Add_12213: 3d202567
onnx::Mul_10901_output: 3d3c792f
onnx::Mul_12211: 3d3c792f
onnx::Add_10893_output: 3ceaa875
onnx::Add_12203: 3ceaa875
onnx::Mul_10891_output: 3d4956cb
onnx::Mul_12201: 3d4956cb
onnx::Add_10883_output: 3d0baa72
onnx::Add_12193: 3d0baa72
onnx::Mul_10881_output: 3d2f912a
onnx::Mul_12191: 3d2f912a
onnx::Add_10873_output: 3d180056
onnx::Add_12183: 3d180056
onnx::Mul_10871_output: 3c7bab37
onnx::Mul_12181: 3c7bab37
onnx::Add_10863_output: 3d8c167f
onnx::Add_12173: 3d8c167f
onnx::Mul_10861_output: 4028ab69
onnx::Mul_12171: 4028ab69
onnx::Add_10853_output: 3de2a7b3
onnx::Add_12163: 3de2a7b3
onnx::Mul_10851_output: 3f9bebd3
onnx::Mul_12161: 3f9bebd3
onnx::Add_10843_output: 3d889349
onnx::Add_12153: 3d889349
onnx::Mul_10841_output: 3dfa6270
onnx::Mul_12151: 3dfa6270
onnx::Add_10833_output: 3d100bb9
onnx::Add_12143: 3d100bb9
onnx::Mul_10831_output: 3d82815c
onnx::Mul_12141: 3d82815c
onnx::Add_10823_output: 3c8b046e
onnx::Add_12133: 3c8b046e
onnx::Mul_10821_output: 3d278d33
onnx::Mul_12131: 3d278d33
onnx::Add_10813_output: 3c884cfc
onnx::Add_12123: 3c884cfc
onnx::Mul_10811_output: 3ce9cceb
onnx::Mul_12121: 3ce9cceb
onnx::Add_10803_output: 3cbd4589
onnx::Add_12113: 3cbd4589
onnx::Mul_10801_output: 3cd3cd27
onnx::Mul_12111: 3cd3cd27
onnx::Add_10793_output: 3ce99884
onnx::Add_12103: 3ce99884
onnx::Mul_10791_output: 3cfd2bb1
onnx::Mul_12101: 3cfd2bb1
onnx::Add_10783_output: 3caf9242
onnx::Add_12093: 3caf9242
onnx::Mul_10781_output: 3d87c324
onnx::Mul_12091: 3d87c324
onnx::Add_10773_output: 3ca12f93
onnx::Add_12083: 3ca12f93
onnx::Mul_10771_output: 3d97ed41
onnx::Mul_12081: 3d97ed41
onnx::Add_10763_output: 3c05360d
onnx::Add_12073: 3c05360d
onnx::Mul_10761_output: 3bf4aef4
onnx::Mul_12071: 3bf4aef4
onnx::Add_10753_output: 3be1d21c
onnx::Add_12063: 3be1d21c
onnx::Mul_10751_output: 3d2aceaf
onnx::Mul_12061: 3d2aceaf
onnx::Add_10738_output: 3b91a2ae
onnx::Add_12048: 3b91a2ae
onnx::Mul_10736_output: 3c80bdca
onnx::Mul_12046: 3c80bdca
onnx::Add_10723_output: 3b8525d3
onnx::Add_12033: 3b8525d3
onnx::Mul_10721_output: 3b9e8b3d
onnx::Mul_12031: 3b9e8b3d
onnx::MatMul_13388_output: 3d136daa
onnx::MatMul_13672: 3d136daa
onnx::MatMul_13387_output: 3d05e1c2
onnx::MatMul_13671: 3d05e1c2
onnx::MatMul_13617: 3d136daa
onnx::MatMul_13616: 3d05e1c2
onnx::MatMul_13562: 3d136daa
onnx::MatMul_13561: 3d05e1c2
onnx::MatMul_13507: 3d136daa
onnx::MatMul_13506: 3d05e1c2
onnx::MatMul_13452: 3d136daa
onnx::MatMul_13451: 3d05e1c2
/seg_model/backbone/stem/stem1/conv/Conv_output_0: 3d54ef1a
/seg_model/backbone/stem/stem1/bn/Mul_output_0: 3c422b6c
/seg_model/backbone/stem/stem1/bn/Add_output_0: 3c70ae84
/seg_model/backbone/stem/stem1/act/Relu_output_0: 3c714f49
/seg_model/dfine_model/decoder/decoder/Gather_13_output_0: 3d345d31
/seg_model/dfine_model/decoder/decoder/layers.2/cross_attn/Constant_12_output_0_output: 3b810a14
ONNXTRT_Broadcast_1873_output: 3b810a14
ONNXTRT_Broadcast_1497_output: 3d010a14
/seg_model/dfine_model/decoder/decoder/layers.3/self_attn/Add_1_output_0: 3e6c0776
ONNXTRT_Broadcast_1763_output: 3b54aef3
/seg_model/dfine_model/decoder/decoder/Div_23_output_0: 3bfffcb2
ONNXTRT_Broadcast_2898_output: 3c3636ea
onnx::Add_13525_output: 3c19424d
/seg_model/dfine_model/decoder/decoder/layers.3/self_attn/Reshape_4_output_0: 3f41dfe4
/postprocessor/Flatten_output_0: 3a8ab351
/seg_model/dfine_model/decoder/decoder/layers.5/cross_attn/Split_output_0: 3c9030e1
/seg_model/dfine_model/decoder/decoder/layers.2/cross_attn/Reshape_4_output_0: 3c9d03be
/seg_model/dfine_model/decoder/decoder/layers.5/gateway/Sigmoid_output_0: 3c021421
/postprocessor/Split_output_1: 3bfed05f
/seg_model/dfine_model/decoder/decoder/dec_bbox_head.1/act/Relu_output_0: 3d8fb123
ONNXTRT_Broadcast_2990_output: 3baffea3
scores: 3c0da3da
/seg_model/dfine_model/decoder/decoder/layers.2/self_attn/MatMul_3_output_0: 401faa9f
/seg_model/dfine_model/decoder/decoder/layers.2/gateway/Mul_2_output_0: 3c00feb1
ONNXTRT_Broadcast_2305_output: 3d136daa
/postprocessor/Mul_4_output_0: 40a17df2
onnx::MatMul_13717_output: 3c3636ea
/seg_model/dfine_model/decoder/decoder/layers.3/self_attn/Transpose_1_output_0: 3d7e2936
/seg_model/dfine_model/decoder/decoder/layers.5/gateway/Concat_output_0: 3d435987
/seg_model/dfine_model/decoder/decoder/Constant_162_output_0_output: 3b810a14
/seg_model/dfine_model/decoder/decoder/lqe_layers.5/Softmax_output: 3be8db08
/seg_model/dfine_model/decoder/decoder/layers.5/cross_attn/Softmax_output_0: 3bf722d8
ONNXTRT_Broadcast_2900_output: 3b3457f0
seg_model.dfine_model.decoder.decoder.layers.5.gateway.gate.bias_output: 3b3457f0
/seg_model/dfine_model/decoder/decoder/layers.4/Add_2_output_0: 3cd19a79
/seg_model/dfine_model/decoder/decoder/layers.5/activation/Relu_output_0: 3e6f464f
/seg_model/dfine_model/decoder/decoder/layers.5/gateway/gate/Add_output_0: 3ddd0808
/seg_model/dfine_model/decoder/decoder/lqe_layers.5/Softmax_output_0: 3be8db08
/seg_model/dfine_model/decoder/decoder/layers.2/cross_attn/Reshape_2_output_0: 3c29d769
seg_model.dfine_model.decoder.decoder.layers.2.self_attn.out_proj.weight_output: 3c9fa78b
ONNXTRT_Broadcast_1629_output: 3b810a14
/seg_model/dfine_model/decoder/decoder/Add_72_output_0: 3db92636
/seg_model/dfine_model/decoder/decoder/integral_2/Identity_output_0: 3d810a14
/seg_model/dfine_model/decoder/decoder/Constant_135_output_0_output: 3c810a14
/seg_model/dfine_model/decoder/decoder/query_pos_head/layers.1_4/MatMul_output_0: 3d154947
ONNXTRT_Broadcast_1938_output: 3c1f1b5c
/postprocessor/Mul_1_output_0: 3b80d2c2
/seg_model/dfine_model/decoder/decoder/Sub_21_output_0: 3bfe1ff4
/seg_model/dfine_model/decoder/decoder/layers.2/cross_attn/Mul_1_output_0: 3c1cd5c1
/postprocessor/Constant_6_output_0_output: 3b810a14
/seg_model/dfine_model/decoder/decoder/layers.2/cross_attn/Split_output_2: 3c10f7cb
/seg_model/backbone/stem/Pad_output_0: 3c714f49
/seg_model/backbone/stem/stem2a/conv/Conv_output_0: 3c88f66a
/seg_model/backbone/stem/stem2a/bn/Mul_output_0: 3c9e0305
/seg_model/backbone/stem/stem2a/bn/Add_output_0: 3c9076fe
/seg_model/backbone/stem/stem2a/act/Relu_output_0: 3c6791ed
ONNXTRT_Broadcast_3070_output: 3c634a53
/seg_model/dfine_model/decoder/decoder/layers.2/cross_attn/Mul_output_0: 3d0adf15
/seg_model/dfine_model/decoder/decoder/Constant_134_output_0_output: 3c810a14
/seg_model/dfine_model/decoder/decoder/Div_10_output_0: 3a81f0bb
ONNXTRT_Broadcast_1553_output: 3c19424d
/seg_model/dfine_model/decoder/decoder/Cast_14_output_0: 3d810a14
seg_model.dfine_model.decoder.dec_bbox_head.3.layers.1.bias_output: 3c05cb4c
ONNXTRT_Broadcast_1555_output: 3cb06b84
onnx::MatMul_13530_output: 3c5a9def
/seg_model/dfine_model/decoder/decoder/layers.3/cross_attn/Transpose_1_output_0: 3bf569f5
/seg_model/Resize_output_0: 3fb5792f
seg_model.dfine_model.decoder.decoder.layers.2.gateway.gate.bias_output: 3b54aef3
/seg_model/dfine_model/decoder/decoder/layers.3/cross_attn/Reshape_1_output_0: 3dd747b8
/seg_model/dfine_model/decoder/decoder/layers.4/cross_attn/Constant_12_output_0_output: 3b810a14
/seg_model/dfine_model/decoder/decoder/layers.5/cross_attn/Mul_5_output_0: 3b6882d1
/seg_model/dfine_model/decoder/decoder/query_pos_head/layers.1_3/Add_output_0: 3ce00e2c
/seg_model/dfine_model/decoder/decoder/layers.4/self_attn/Mul_1_output_0: 3cf7306f
/seg_model/dfine_model/decoder/decoder/Gather_14_output_0: 3d55beaf
/postprocessor/Unsqueeze_2_output_0: 3c013121
ONNXTRT_Broadcast_2387_output: 3b810a14
/seg_model/dfine_model/decoder/decoder/layers.4/self_attn/Add_1_output_0: 3e36fea4
/seg_model/dfine_model/decoder/decoder/layers.4/self_attn/Reshape_4_output_0: 3e83857e
/seg_model/dfine_model/decoder/decoder/layers.4/cross_attn/Split_output_2: 3c18e6ac
/seg_model/seg_head/decoder/decoder.5/Relu_output_0: 3df08c6d
/seg_model/seg_head/fpn/lateral_convs.0/Conv_output_0: 3e840289
/seg_model/dfine_model/decoder/decoder/dec_bbox_head.3/layers.0/Add_output_0: 3d85600d
/seg_model/dfine_model/decoder/decoder/Add_48_output_0: 3dc981ea
ONNXTRT_Broadcast_1853_output: 3c376dc9
/seg_model/dfine_model/decoder/decoder/dec_bbox_head.3/layers.0/MatMul_output_0: 3d77456b
onnx::MatMul_13533_output: 3c9635a7
/postprocessor/Constant_7_output_0_output: 3b810a14
seg_model.dfine_model.decoder.decoder.layers.2.cross_attn.sampling_offsets.bias_output: 3d30ffaa
/seg_model/dfine_model/decoder/decoder/integral_1/Identity_output_0: 3d810a14
/seg_model/dfine_model/decoder/decoder/integral_1/Reshape_output_0: 3f50a63f
ONNXTRT_Broadcast_1859_output: 3c3f7d6c
/seg_model/dfine_model/decoder/decoder/layers.5/cross_attn/Transpose_1_output_0: 3bf722d8
onnx::MatMul_13558_output: 3c80aefe
/seg_model/dfine_model/decoder/decoder/layers.4/cross_attn/Transpose_1_output_0: 3be5b9d6
/seg_model/dfine_model/decoder/decoder/layers.1/gateway/Sigmoid_output_0: 3c0065f2
/seg_model/dfine_model/decoder/decoder/layers.2/cross_attn/Softmax_output_0: 3bdc1a20
/seg_model/dfine_model/decoder/decoder/layers.2/cross_attn/Reshape_1_output_0: 3e165746
ONNXTRT_Broadcast_2978_output: 3be59022
/seg_model/dfine_model/decoder/decoder/layers.2/cross_attn/Unsqueeze_4_output_0: 3c0223f1
/seg_model/dfine_model/decoder/decoder/layers.1/cross_attn/Reshape_3_output_0: 3cc43c22
/seg_model/dfine_model/decoder/decoder/lqe_layers.5/reg_conf/layers.1/MatMul_output_0: 3b8565ad
/seg_model/backbone/stem/Pad_1_output_0: 3c6791ed
/seg_model/backbone/stem/stem2b/conv/Conv_output_0: 3c345bc4
/seg_model/backbone/stem/stem2b/bn/Mul_output_0: 3ccf0b2b
/seg_model/backbone/stem/stem2b/bn/Add_output_0: 3cac401a
/seg_model/backbone/stem/stem2b/act/Relu_output_0: 3ca1ffb8
/seg_model/backbone/stem/pool/MaxPool_output_0: 3c714f49
/seg_model/backbone/stem/Concat_2_output_0: 3ca2744c
/seg_model/backbone/stem/stem3/conv/Conv_output_0: 3d4a9d31
/seg_model/backbone/stem/stem3/bn/Mul_output_0: 3c8de8eb
/seg_model/backbone/stem/stem3/bn/Add_output_0: 3c832163
/seg_model/backbone/stem/stem3/act/Relu_output_0: 3c74074e
/seg_model/backbone/stem/stem4/conv/Conv_output_0: 3c3a7c8a
/seg_model/backbone/stem/stem4/bn/Mul_output_0: 3d1af968
/seg_model/backbone/stem/stem4/bn/Add_output_0: 3cd88221
/seg_model/backbone/stem/stem4/act/Relu_output_0: 3cbbde5a
/seg_model/backbone/stages.0/blocks/blocks.0/layers.0/conv/Conv_output_0: 3cf129db
/seg_model/backbone/stages.0/blocks/blocks.0/layers.0/bn/Mul_output_0: 3de67c11
/seg_model/backbone/stages.0/blocks/blocks.0/layers.0/bn/Add_output_0: 3dee268f
/seg_model/backbone/stages.0/blocks/blocks.0/layers.0/act/Relu_output_0: 3d551481
/seg_model/backbone/stages.0/blocks/blocks.0/layers.1/conv/Conv_output_0: 3d1b7134
/seg_model/backbone/stages.0/blocks/blocks.0/layers.1/bn/Mul_output_0: 3e053c01
/seg_model/backbone/stages.0/blocks/blocks.0/layers.1/bn/Add_output_0: 3dcd0569
/seg_model/backbone/stages.0/blocks/blocks.0/layers.1/act/Relu_output_0: 3d9b0f75
/seg_model/backbone/stages.0/blocks/blocks.0/layers.2/conv/Conv_output_0: 3d1cc834
/seg_model/backbone/stages.0/blocks/blocks.0/layers.2/bn/Mul_output_0: 3da670af
/seg_model/backbone/stages.0/blocks/blocks.0/layers.2/bn/Add_output_0: 3d77c058
/seg_model/backbone/stages.0/blocks/blocks.0/layers.2/act/Relu_output_0: 3d4becf5
/seg_model/backbone/stages.0/blocks/blocks.0/layers.3/conv/Conv_output_0: 3d0853ed
/seg_model/backbone/stages.0/blocks/blocks.0/layers.3/bn/Mul_output_0: 3df16e85
/seg_model/backbone/stages.0/blocks/blocks.0/layers.3/bn/Add_output_0: 3d8b39df
/seg_model/backbone/stages.0/blocks/blocks.0/layers.3/act/Relu_output_0: 3d27ecb0
/seg_model/backbone/stages.0/blocks/blocks.0/layers.4/conv/Conv_output_0: 3ccd2005
/seg_model/backbone/stages.0/blocks/blocks.0/layers.4/bn/Mul_output_0: 3d6a7875
/seg_model/backbone/stages.0/blocks/blocks.0/layers.4/bn/Add_output_0: 3d4e17f9
/seg_model/backbone/stages.0/blocks/blocks.0/layers.4/act/Relu_output_0: 3d3830a2
/seg_model/backbone/stages.0/blocks/blocks.0/layers.5/conv/Conv_output_0: 3c88e1d6
/seg_model/backbone/stages.0/blocks/blocks.0/layers.5/bn/Mul_output_0: 3db447bd
/seg_model/backbone/stages.0/blocks/blocks.0/layers.5/bn/Add_output_0: 3da32343
/seg_model/backbone/stages.0/blocks/blocks.0/layers.5/act/Relu_output_0: 3d77ade2
/seg_model/backbone/stages.0/blocks/blocks.0/Concat_output_0: 3d4a33e4
/seg_model/backbone/stages.0/blocks/blocks.0/aggregation/aggregation.0/conv/Conv_output_0: 3d464470
/seg_model/backbone/stages.0/blocks/blocks.0/aggregation/aggregation.0/bn/Mul_output_0: 3e7af416
/seg_model/backbone/stages.0/blocks/blocks.0/aggregation/aggregation.0/bn/Add_output_0: 3e731863
/seg_model/backbone/stages.0/blocks/blocks.0/aggregation/aggregation.0/act/Relu_output_0: 3e654bff
/seg_model/backbone/stages.0/blocks/blocks.0/aggregation/aggregation.1/conv/Conv_output_0: 3dee4b9a
/seg_model/backbone/stages.0/blocks/blocks.0/aggregation/aggregation.1/bn/Mul_output_0: 3e2a88f3
/seg_model/backbone/stages.0/blocks/blocks.0/aggregation/aggregation.1/bn/Add_output_0: 3e075825
/seg_model/backbone/stages.0/blocks/blocks.0/aggregation/aggregation.1/act/Relu_output_0: 3e099c08
/seg_model/backbone/stages.1/downsample/conv/Conv_output_0: 3d814d86
/seg_model/backbone/stages.1/downsample/bn/Mul_output_0: 3e40360b
/seg_model/backbone/stages.1/downsample/bn/Add_output_0: 3dd400d5
/seg_model/backbone/stages.1/blocks/blocks.0/layers.0/conv/Conv_output_0: 3df240f3
/seg_model/backbone/stages.1/blocks/blocks.0/layers.0/bn/Mul_output_0: 3e3dbb75
/seg_model/backbone/stages.1/blocks/blocks.0/layers.0/bn/Add_output_0: 3e5ba9fe
/seg_model/backbone/stages.1/blocks/blocks.0/layers.0/act/Relu_output_0: 3e2fdf45
/seg_model/backbone/stages.1/blocks/blocks.0/layers.1/conv/Conv_output_0: 3d96d3ec
/seg_model/backbone/stages.1/blocks/blocks.0/layers.1/bn/Mul_output_0: 3e081211
/seg_model/backbone/stages.1/blocks/blocks.0/layers.1/bn/Add_output_0: 3e04243a
/seg_model/backbone/stages.1/blocks/blocks.0/layers.1/act/Relu_output_0: 3db5ad74
/seg_model/backbone/stages.1/blocks/blocks.0/layers.2/conv/Conv_output_0: 3d1d6333
/seg_model/backbone/stages.1/blocks/blocks.0/layers.2/bn/Mul_output_0: 3e1b4903
/seg_model/backbone/stages.1/blocks/blocks.0/layers.2/bn/Add_output_0: 3e0a9090
/seg_model/backbone/stages.1/blocks/blocks.0/layers.2/act/Relu_output_0: 3d99d1ff
/seg_model/backbone/stages.1/blocks/blocks.0/layers.3/conv/Conv_output_0: 3cd98af7
/seg_model/backbone/stages.1/blocks/blocks.0/layers.3/bn/Mul_output_0: 3dbbbfd5
/seg_model/backbone/stages.1/blocks/blocks.0/layers.3/bn/Add_output_0: 3da4b4ea
/seg_model/backbone/stages.1/blocks/blocks.0/layers.3/act/Relu_output_0: 3d96781b
/seg_model/backbone/stages.1/blocks/blocks.0/layers.4/conv/Conv_output_0: 3cd46ed3
/seg_model/backbone/stages.1/blocks/blocks.0/layers.4/bn/Mul_output_0: 3e008be2
/seg_model/backbone/stages.1/blocks/blocks.0/layers.4/bn/Add_output_0: 3dc0f6d1
/seg_model/backbone/stages.1/blocks/blocks.0/layers.4/act/Relu_output_0: 3db19927
/seg_model/backbone/stages.1/blocks/blocks.0/layers.5/conv/Conv_output_0: 3ce9fd62
/seg_model/backbone/stages.1/blocks/blocks.0/layers.5/bn/Mul_output_0: 3e26f023
/seg_model/backbone/stages.1/blocks/blocks.0/layers.5/bn/Add_output_0: 3e2900b6
/seg_model/backbone/stages.1/blocks/blocks.0/layers.5/act/Relu_output_0: 3dd27adc
/seg_model/backbone/stages.1/blocks/blocks.0/Concat_output_0: 3e305feb
/seg_model/backbone/stages.1/blocks/blocks.0/aggregation/aggregation.0/conv/Conv_output_0: 3e0c315a
/seg_model/backbone/stages.1/blocks/blocks.0/aggregation/aggregation.0/bn/Mul_output_0: 3e1a4671
/seg_model/backbone/stages.1/blocks/blocks.0/aggregation/aggregation.0/bn/Add_output_0: 3e041c11
/seg_model/backbone/stages.1/blocks/blocks.0/aggregation/aggregation.0/act/Relu_output_0: 3e041c11
/seg_model/backbone/stages.1/blocks/blocks.0/aggregation/aggregation.1/conv/Conv_output_0: 3ddb8b30
/seg_model/backbone/stages.1/blocks/blocks.0/aggregation/aggregation.1/bn/Mul_output_0: 3e32ffd9
/seg_model/backbone/stages.1/blocks/blocks.0/aggregation/aggregation.1/bn/Add_output_0: 3e21ea01
/seg_model/backbone/stages.1/blocks/blocks.0/aggregation/aggregation.1/act/Relu_output_0: 3e21ea01
/seg_model/backbone/stages.1/blocks/blocks.1/layers.0/conv/Conv_output_0: 3dfe6df7
/seg_model/backbone/stages.1/blocks/blocks.1/layers.0/bn/Mul_output_0: 3e782a9c
/seg_model/backbone/stages.1/blocks/blocks.1/layers.0/bn/Add_output_0: 3e6add6e
/seg_model/backbone/stages.1/blocks/blocks.1/layers.0/act/Relu_output_0: 3e6d0886
/seg_model/backbone/stages.1/blocks/blocks.1/layers.1/conv/Conv_output_0: 3daa2eae
/seg_model/backbone/stages.1/blocks/blocks.1/layers.1/bn/Mul_output_0: 3ee8c694
/seg_model/backbone/stages.1/blocks/blocks.1/layers.1/bn/Add_output_0: 3edb3074
/seg_model/backbone/stages.1/blocks/blocks.1/layers.1/act/Relu_output_0: 3e11f025
/seg_model/backbone/stages.1/blocks/blocks.1/layers.2/conv/Conv_output_0: 3db42ba2
/seg_model/backbone/stages.1/blocks/blocks.1/layers.2/bn/Mul_output_0: 3e2738db
/seg_model/backbone/stages.1/blocks/blocks.1/layers.2/bn/Add_output_0: 3e0cd9f1
/seg_model/backbone/stages.1/blocks/blocks.1/layers.2/act/Relu_output_0: 3e0c9025
/seg_model/backbone/stages.1/blocks/blocks.1/layers.3/conv/Conv_output_0: 3d2ff2f4
/seg_model/backbone/stages.1/blocks/blocks.1/layers.3/bn/Mul_output_0: 3e28a250
/seg_model/backbone/stages.1/blocks/blocks.1/layers.3/bn/Add_output_0: 3e0b6a03
/seg_model/backbone/stages.1/blocks/blocks.1/layers.3/act/Relu_output_0: 3d960709
/seg_model/backbone/stages.1/blocks/blocks.1/layers.4/conv/Conv_output_0: 3ccf7d84
/seg_model/backbone/stages.1/blocks/blocks.1/layers.4/bn/Mul_output_0: 3dcaabb8
/seg_model/backbone/stages.1/blocks/blocks.1/layers.4/bn/Add_output_0: 3db94125
/seg_model/backbone/stages.1/blocks/blocks.1/layers.4/act/Relu_output_0: 3daf5d65
/seg_model/backbone/stages.1/blocks/blocks.1/layers.5/conv/Conv_output_0: 3cb90428
/seg_model/backbone/stages.1/blocks/blocks.1/layers.5/bn/Mul_output_0: 3e02ff09
/seg_model/backbone/stages.1/blocks/blocks.1/layers.5/bn/Add_output_0: 3df4e098
/seg_model/backbone/stages.1/blocks/blocks.1/layers.5/act/Relu_output_0: 3da21dec
/seg_model/backbone/stages.1/blocks/blocks.1/Concat_output_0: 3e5040ce
/seg_model/backbone/stages.1/blocks/blocks.1/aggregation/aggregation.0/conv/Conv_output_0: 3d48ce05
/seg_model/backbone/stages.1/blocks/blocks.1/aggregation/aggregation.0/bn/Mul_output_0: 3e8a067a
/seg_model/backbone/stages.1/blocks/blocks.1/aggregation/aggregation.0/bn/Add_output_0: 3e80068c
/seg_model/backbone/stages.1/blocks/blocks.1/aggregation/aggregation.0/act/Relu_output_0: 3e80ce7e
/seg_model/backbone/stages.1/blocks/blocks.1/aggregation/aggregation.1/conv/Conv_output_0: 3d1194f0
/seg_model/backbone/stages.1/blocks/blocks.1/aggregation/aggregation.1/bn/Mul_output_0: 3e87b551
/seg_model/backbone/stages.1/blocks/blocks.1/aggregation/aggregation.1/bn/Add_output_0: 3e644df6
/seg_model/backbone/stages.1/blocks/blocks.1/aggregation/aggregation.1/act/Relu_output_0: 3e3ba089
/seg_model/backbone/stages.1/blocks/blocks.1/Add_output_0: 3e316e93
/seg_model/backbone/stages.2/downsample/conv/Conv_output_0: 3d5c27ad
/seg_model/backbone/stages.2/downsample/bn/Mul_output_0: 3ea2189b
/seg_model/backbone/stages.2/downsample/bn/Add_output_0: 3e970db8
/seg_model/backbone/stages.2/blocks/blocks.0/layers.0/conv1/conv/Conv_output_0: 3e4dae2d
/seg_model/backbone/stages.2/blocks/blocks.0/layers.0/conv1/bn/Mul_output_0: 3e3dae07
/seg_model/backbone/stages.2/blocks/blocks.0/layers.0/conv1/bn/Add_output_0: 3e3db509
/seg_model/backbone/stages.2/blocks/blocks.0/layers.0/conv2/conv/Conv_output_0: 3d8707c5
/seg_model/backbone/stages.2/blocks/blocks.0/layers.0/conv2/bn/Mul_output_0: 3e964623
/seg_model/backbone/stages.2/blocks/blocks.0/layers.0/conv2/bn/Add_output_0: 3e9a6bcb
/seg_model/backbone/stages.2/blocks/blocks.0/layers.0/conv2/act/Relu_output_0: 3e91dbc4
/seg_model/backbone/stages.2/blocks/blocks.0/layers.1/conv1/conv/Conv_output_0: 3dc4b57b
/seg_model/backbone/stages.2/blocks/blocks.0/layers.1/conv1/bn/Mul_output_0: 3e559e63
/seg_model/backbone/stages.2/blocks/blocks.0/layers.1/conv1/bn/Add_output_0: 3e48d814
/seg_model/backbone/stages.2/blocks/blocks.0/layers.1/conv2/conv/Conv_output_0: 3d4c4865
/seg_model/backbone/stages.2/blocks/blocks.0/layers.1/conv2/bn/Mul_output_0: 3e8ff435
/seg_model/backbone/stages.2/blocks/blocks.0/layers.1/conv2/bn/Add_output_0: 3e91ce82
/seg_model/backbone/stages.2/blocks/blocks.0/layers.1/conv2/act/Relu_output_0: 3e607aa4
/seg_model/backbone/stages.2/blocks/blocks.0/layers.2/conv1/conv/Conv_output_0: 3d4ca54d
/seg_model/backbone/stages.2/blocks/blocks.0/layers.2/conv1/bn/Mul_output_0: 3e27de6a
/seg_model/backbone/stages.2/blocks/blocks.0/layers.2/conv1/bn/Add_output_0: 3e2df159
/seg_model/backbone/stages.2/blocks/blocks.0/layers.2/conv2/conv/Conv_output_0: 3d1d283a
/seg_model/backbone/stages.2/blocks/blocks.0/layers.2/conv2/bn/Mul_output_0: 3e97a9b3
/seg_model/backbone/stages.2/blocks/blocks.0/layers.2/conv2/bn/Add_output_0: 3e8fcdfd
/seg_model/backbone/stages.2/blocks/blocks.0/layers.2/conv2/act/Relu_output_0: 3e680da8
/seg_model/backbone/stages.2/blocks/blocks.0/layers.3/conv1/conv/Conv_output_0: 3d34b509
/seg_model/backbone/stages.2/blocks/blocks.0/layers.3/conv1/bn/Mul_output_0: 3e2491e3
/seg_model/backbone/stages.2/blocks/blocks.0/layers.3/conv1/bn/Add_output_0: 3e263e74
/seg_model/backbone/stages.2/blocks/blocks.0/layers.3/conv2/conv/Conv_output_0: 3d201b90
/seg_model/backbone/stages.2/blocks/blocks.0/layers.3/conv2/bn/Mul_output_0: 3e5f9cf9
/seg_model/backbone/stages.2/blocks/blocks.0/layers.3/conv2/bn/Add_output_0: 3e56c0d8
/seg_model/backbone/stages.2/blocks/blocks.0/layers.3/conv2/act/Relu_output_0: 3e0a7426
/seg_model/backbone/stages.2/blocks/blocks.0/layers.4/conv1/conv/Conv_output_0: 3caf5eb5
/seg_model/backbone/stages.2/blocks/blocks.0/layers.4/conv1/bn/Mul_output_0: 3e2fea47
/seg_model/backbone/stages.2/blocks/blocks.0/layers.4/conv1/bn/Add_output_0: 3e1bb6d1
/seg_model/backbone/stages.2/blocks/blocks.0/layers.4/conv2/conv/Conv_output_0: 3cd960e7
/seg_model/backbone/stages.2/blocks/blocks.0/layers.4/conv2/bn/Mul_output_0: 3e305671
/seg_model/backbone/stages.2/blocks/blocks.0/layers.4/conv2/bn/Add_output_0: 3e22ea0d
/seg_model/backbone/stages.2/blocks/blocks.0/layers.4/conv2/act/Relu_output_0: 3dd3ad54
/seg_model/backbone/stages.2/blocks/blocks.0/layers.5/conv1/conv/Conv_output_0: 3c952d84
/seg_model/backbone/stages.2/blocks/blocks.0/layers.5/conv1/bn/Mul_output_0: 3e981701
/seg_model/backbone/stages.2/blocks/blocks.0/layers.5/conv1/bn/Add_output_0: 3e8e4add
/seg_model/backbone/stages.2/blocks/blocks.0/layers.5/conv2/conv/Conv_output_0: 3d3ece16
/seg_model/backbone/stages.2/blocks/blocks.0/layers.5/conv2/bn/Mul_output_0: 3f0152fb
/seg_model/backbone/stages.2/blocks/blocks.0/layers.5/conv2/bn/Add_output_0: 3efb2632
/seg_model/backbone/stages.2/blocks/blocks.0/layers.5/conv2/act/Relu_output_0: 3e1a09a6
/seg_model/backbone/stages.2/blocks/blocks.0/Concat_output_0: 3e951868
/seg_model/backbone/stages.2/blocks/blocks.0/aggregation/aggregation.0/conv/Conv_output_0: 3e314b01
/seg_model/backbone/stages.2/blocks/blocks.0/aggregation/aggregation.0/bn/Mul_output_0: 3e929b8a
/seg_model/backbone/stages.2/blocks/blocks.0/aggregation/aggregation.0/bn/Add_output_0: 3e9d0580
/seg_model/backbone/stages.2/blocks/blocks.0/aggregation/aggregation.0/act/Relu_output_0: 3e05db69
/seg_model/backbone/stages.2/blocks/blocks.0/aggregation/aggregation.1/conv/Conv_output_0: 3d67714e
/seg_model/backbone/stages.2/blocks/blocks.0/aggregation/aggregation.1/bn/Mul_output_0: 3e29eb8b
/seg_model/backbone/stages.2/blocks/blocks.0/aggregation/aggregation.1/bn/Add_output_0: 3e3368e7
/seg_model/backbone/stages.2/blocks/blocks.0/aggregation/aggregation.1/act/Relu_output_0: 3d8da68b
/seg_model/backbone/stages.2/blocks/blocks.1/layers.0/conv1/conv/Conv_output_0: 3ce686ba
/seg_model/backbone/stages.2/blocks/blocks.1/layers.0/conv1/bn/Mul_output_0: 3d93176a
/seg_model/backbone/stages.2/blocks/blocks.1/layers.0/conv1/bn/Add_output_0: 3d8a4191
/seg_model/backbone/stages.2/blocks/blocks.1/layers.0/conv2/conv/Conv_output_0: 3ca81328
/seg_model/backbone/stages.2/blocks/blocks.1/layers.0/conv2/bn/Mul_output_0: 3dc247c7
/seg_model/backbone/stages.2/blocks/blocks.1/layers.0/conv2/bn/Add_output_0: 3dd8820f
/seg_model/backbone/stages.2/blocks/blocks.1/layers.0/conv2/act/Relu_output_0: 3dca9702
/seg_model/backbone/stages.2/blocks/blocks.1/layers.1/conv1/conv/Conv_output_0: 3cea4a2d
/seg_model/backbone/stages.2/blocks/blocks.1/layers.1/conv1/bn/Mul_output_0: 3d999b0c
/seg_model/backbone/stages.2/blocks/blocks.1/layers.1/conv1/bn/Add_output_0: 3d793d9c
/seg_model/backbone/stages.2/blocks/blocks.1/layers.1/conv2/conv/Conv_output_0: 3c862b3c
/seg_model/backbone/stages.2/blocks/blocks.1/layers.1/conv2/bn/Mul_output_0: 3dda0dda
/seg_model/backbone/stages.2/blocks/blocks.1/layers.1/conv2/bn/Add_output_0: 3dbd5c55
/seg_model/backbone/stages.2/blocks/blocks.1/layers.1/conv2/act/Relu_output_0: 3dbd6950
/seg_model/backbone/stages.2/blocks/blocks.1/layers.2/conv1/conv/Conv_output_0: 3c9535bb
/seg_model/backbone/stages.2/blocks/blocks.1/layers.2/conv1/bn/Mul_output_0: 3d79d16b
/seg_model/backbone/stages.2/blocks/blocks.1/layers.2/conv1/bn/Add_output_0: 3d7b4091
/seg_model/backbone/stages.2/blocks/blocks.1/layers.2/conv2/conv/Conv_output_0: 3c544222
/seg_model/backbone/stages.2/blocks/blocks.1/layers.2/conv2/bn/Mul_output_0: 3dd5ed08
/seg_model/backbone/stages.2/blocks/blocks.1/layers.2/conv2/bn/Add_output_0: 3dda1a1f
/seg_model/backbone/stages.2/blocks/blocks.1/layers.2/conv2/act/Relu_output_0: 3dda1a1f
/seg_model/backbone/stages.2/blocks/blocks.1/layers.3/conv1/conv/Conv_output_0: 3c82085c
/seg_model/backbone/stages.2/blocks/blocks.1/layers.3/conv1/bn/Mul_output_0: 3d87472b
/seg_model/backbone/stages.2/blocks/blocks.1/layers.3/conv1/bn/Add_output_0: 3d8e993d
/seg_model/backbone/stages.2/blocks/blocks.1/layers.3/conv2/conv/Conv_output_0: 3c54d7da
/seg_model/backbone/stages.2/blocks/blocks.1/layers.3/conv2/bn/Mul_output_0: 3dd589e1
/seg_model/backbone/stages.2/blocks/blocks.1/layers.3/conv2/bn/Add_output_0: 3dd98641
/seg_model/backbone/stages.2/blocks/blocks.1/layers.3/conv2/act/Relu_output_0: 3dcf9fbc
/seg_model/backbone/stages.2/blocks/blocks.1/layers.4/conv1/conv/Conv_output_0: 3c667249
/seg_model/backbone/stages.2/blocks/blocks.1/layers.4/conv1/bn/Mul_output_0: 3d97504f
/seg_model/backbone/stages.2/blocks/blocks.1/layers.4/conv1/bn/Add_output_0: 3d93b2be
/seg_model/backbone/stages.2/blocks/blocks.1/layers.4/conv2/conv/Conv_output_0: 3c892267
/seg_model/backbone/stages.2/blocks/blocks.1/layers.4/conv2/bn/Mul_output_0: 3e274abc
/seg_model/backbone/stages.2/blocks/blocks.1/layers.4/conv2/bn/Add_output_0: 3e0143a1
/seg_model/backbone/stages.2/blocks/blocks.1/layers.4/conv2/act/Relu_output_0: 3dc1dd00
/seg_model/backbone/stages.2/blocks/blocks.1/layers.5/conv1/conv/Conv_output_0: 3c327b3a
/seg_model/backbone/stages.2/blocks/blocks.1/layers.5/conv1/bn/Mul_output_0: 3dbd56bb
/seg_model/backbone/stages.2/blocks/blocks.1/layers.5/conv1/bn/Add_output_0: 3dac55dd
/seg_model/backbone/stages.2/blocks/blocks.1/layers.5/conv2/conv/Conv_output_0: 3c79c1c5
/seg_model/backbone/stages.2/blocks/blocks.1/layers.5/conv2/bn/Mul_output_0: 3e09cbd1
/seg_model/backbone/stages.2/blocks/blocks.1/layers.5/conv2/bn/Add_output_0: 3e098d46
/seg_model/backbone/stages.2/blocks/blocks.1/layers.5/conv2/act/Relu_output_0: 3df873e5
/seg_model/backbone/stages.2/blocks/blocks.1/Concat_output_0: 3dc32738
/seg_model/backbone/stages.2/blocks/blocks.1/aggregation/aggregation.0/conv/Conv_output_0: 3d3d4fe7
/seg_model/backbone/stages.2/blocks/blocks.1/aggregation/aggregation.0/bn/Mul_output_0: 3e00369a
/seg_model/backbone/stages.2/blocks/blocks.1/aggregation/aggregation.0/bn/Add_output_0: 3e10de68
/seg_model/backbone/stages.2/blocks/blocks.1/aggregation/aggregation.0/act/Relu_output_0: 3dc14de6
/seg_model/backbone/stages.2/blocks/blocks.1/aggregation/aggregation.1/conv/Conv_output_0: 3cac7160
/seg_model/backbone/stages.2/blocks/blocks.1/aggregation/aggregation.1/bn/Mul_output_0: 3da5e292
/seg_model/backbone/stages.2/blocks/blocks.1/aggregation/aggregation.1/bn/Add_output_0: 3d57fbcf
/seg_model/backbone/stages.2/blocks/blocks.1/aggregation/aggregation.1/act/Relu_output_0: 3d8a077e
/seg_model/backbone/stages.2/blocks/blocks.1/Add_output_0: 3d94788a
/seg_model/backbone/stages.2/blocks/blocks.2/layers.0/conv1/conv/Conv_output_0: 3d05670c
/seg_model/backbone/stages.2/blocks/blocks.2/layers.0/conv1/bn/Mul_output_0: 3d99641d
/seg_model/backbone/stages.2/blocks/blocks.2/layers.0/conv1/bn/Add_output_0: 3d992287
/seg_model/backbone/stages.2/blocks/blocks.2/layers.0/conv2/conv/Conv_output_0: 3c8aa6f3
/seg_model/backbone/stages.2/blocks/blocks.2/layers.0/conv2/bn/Mul_output_0: 3e1d4e25
/seg_model/backbone/stages.2/blocks/blocks.2/layers.0/conv2/bn/Add_output_0: 3e1f86b2
/seg_model/backbone/stages.2/blocks/blocks.2/layers.0/conv2/act/Relu_output_0: 3ded1f07
/seg_model/backbone/stages.2/blocks/blocks.2/layers.1/conv1/conv/Conv_output_0: 3c8efcd7
/seg_model/backbone/stages.2/blocks/blocks.2/layers.1/conv1/bn/Mul_output_0: 3da9d06f
/seg_model/backbone/stages.2/blocks/blocks.2/layers.1/conv1/bn/Add_output_0: 3da2019e
/seg_model/backbone/stages.2/blocks/blocks.2/layers.1/conv2/conv/Conv_output_0: 3c78408f
/seg_model/backbone/stages.2/blocks/blocks.2/layers.1/conv2/bn/Mul_output_0: 3de027de
/seg_model/backbone/stages.2/blocks/blocks.2/layers.1/conv2/bn/Add_output_0: 3ddb2a0b
/seg_model/backbone/stages.2/blocks/blocks.2/layers.1/conv2/act/Relu_output_0: 3dd81148
/seg_model/backbone/stages.2/blocks/blocks.2/layers.2/conv1/conv/Conv_output_0: 3cc483d4
/seg_model/backbone/stages.2/blocks/blocks.2/layers.2/conv1/bn/Mul_output_0: 3dcbd844
/seg_model/backbone/stages.2/blocks/blocks.2/layers.2/conv1/bn/Add_output_0: 3dc665ca
/seg_model/backbone/stages.2/blocks/blocks.2/layers.2/conv2/conv/Conv_output_0: 3c8cb228
/seg_model/backbone/stages.2/blocks/blocks.2/layers.2/conv2/bn/Mul_output_0: 3de684eb
/seg_model/backbone/stages.2/blocks/blocks.2/layers.2/conv2/bn/Add_output_0: 3df13b3d
/seg_model/backbone/stages.2/blocks/blocks.2/layers.2/conv2/act/Relu_output_0: 3d9e2385
/seg_model/backbone/stages.2/blocks/blocks.2/layers.3/conv1/conv/Conv_output_0: 3c41a7f6
/seg_model/backbone/stages.2/blocks/blocks.2/layers.3/conv1/bn/Mul_output_0: 3dbd1357
/seg_model/backbone/stages.2/blocks/blocks.2/layers.3/conv1/bn/Add_output_0: 3db2f479
/seg_model/backbone/stages.2/blocks/blocks.2/layers.3/conv2/conv/Conv_output_0: 3c7eacc3
/seg_model/backbone/stages.2/blocks/blocks.2/layers.3/conv2/bn/Mul_output_0: 3daa66e0
/seg_model/backbone/stages.2/blocks/blocks.2/layers.3/conv2/bn/Add_output_0: 3da872d7
/seg_model/backbone/stages.2/blocks/blocks.2/layers.3/conv2/act/Relu_output_0: 3d8bfc8a
/seg_model/backbone/stages.2/blocks/blocks.2/layers.4/conv1/conv/Conv_output_0: 3c21d37c
/seg_model/backbone/stages.2/blocks/blocks.2/layers.4/conv1/bn/Mul_output_0: 3dc6c6f3
/seg_model/backbone/stages.2/blocks/blocks.2/layers.4/conv1/bn/Add_output_0: 3dafde43
/seg_model/backbone/stages.2/blocks/blocks.2/layers.4/conv2/conv/Conv_output_0: 3c5f41e0
/seg_model/backbone/stages.2/blocks/blocks.2/layers.4/conv2/bn/Mul_output_0: 3d681baf
/seg_model/backbone/stages.2/blocks/blocks.2/layers.4/conv2/bn/Add_output_0: 3d65c71b
/seg_model/backbone/stages.2/blocks/blocks.2/layers.4/conv2/act/Relu_output_0: 3d704e53
/seg_model/backbone/stages.2/blocks/blocks.2/layers.5/conv1/conv/Conv_output_0: 3c126913
/seg_model/backbone/stages.2/blocks/blocks.2/layers.5/conv1/bn/Mul_output_0: 3de9db31
/seg_model/backbone/stages.2/blocks/blocks.2/layers.5/conv1/bn/Add_output_0: 3d7d3627
/seg_model/backbone/stages.2/blocks/blocks.2/layers.5/conv2/conv/Conv_output_0: 3cc2bf00
/seg_model/backbone/stages.2/blocks/blocks.2/layers.5/conv2/bn/Mul_output_0: 3e1857ae
/seg_model/backbone/stages.2/blocks/blocks.2/layers.5/conv2/bn/Add_output_0: 3e03c6b0
/seg_model/backbone/stages.2/blocks/blocks.2/layers.5/conv2/act/Relu_output_0: 3da4bfbb
/seg_model/backbone/stages.2/blocks/blocks.2/Concat_output_0: 3d96c26a
/seg_model/backbone/stages.2/blocks/blocks.2/aggregation/aggregation.0/conv/Conv_output_0: 3d072d48
/seg_model/backbone/stages.2/blocks/blocks.2/aggregation/aggregation.0/bn/Mul_output_0: 3e2adb7c
/seg_model/backbone/stages.2/blocks/blocks.2/aggregation/aggregation.0/bn/Add_output_0: 3e2233e0
/seg_model/backbone/stages.2/blocks/blocks.2/aggregation/aggregation.0/act/Relu_output_0: 3dc3f1d1
/seg_model/backbone/stages.2/blocks/blocks.2/aggregation/aggregation.1/conv/Conv_output_0: 3c71e778
/seg_model/backbone/stages.2/blocks/blocks.2/aggregation/aggregation.1/bn/Mul_output_0: 3dd11862
/seg_model/backbone/stages.2/blocks/blocks.2/aggregation/aggregation.1/bn/Add_output_0: 3df692a5
/seg_model/backbone/stages.2/blocks/blocks.2/aggregation/aggregation.1/act/Relu_output_0: 3db28d80
/seg_model/backbone/stages.2/blocks/blocks.2/Add_output_0: 3db08b06
/seg_model/backbone/stages.2/blocks/blocks.3/layers.0/conv1/conv/Conv_output_0: 3d183174
/seg_model/backbone/stages.2/blocks/blocks.3/layers.0/conv1/bn/Mul_output_0: 3db18029
/seg_model/backbone/stages.2/blocks/blocks.3/layers.0/conv1/bn/Add_output_0: 3da947eb
/seg_model/backbone/stages.2/blocks/blocks.3/layers.0/conv2/conv/Conv_output_0: 3c99970a
/seg_model/backbone/stages.2/blocks/blocks.3/layers.0/conv2/bn/Mul_output_0: 3df02d08
/seg_model/backbone/stages.2/blocks/blocks.3/layers.0/conv2/bn/Add_output_0: 3dfe691e
/seg_model/backbone/stages.2/blocks/blocks.3/layers.0/conv2/act/Relu_output_0: 3dd1e755
/seg_model/backbone/stages.2/blocks/blocks.3/layers.1/conv1/conv/Conv_output_0: 3ca30a68
/seg_model/backbone/stages.2/blocks/blocks.3/layers.1/conv1/bn/Mul_output_0: 3db01d85
/seg_model/backbone/stages.2/blocks/blocks.3/layers.1/conv1/bn/Add_output_0: 3da03c46
/seg_model/backbone/stages.2/blocks/blocks.3/layers.1/conv2/conv/Conv_output_0: 3c7bda6b
/seg_model/backbone/stages.2/blocks/blocks.3/layers.1/conv2/bn/Mul_output_0: 3dc7fbce
/seg_model/backbone/stages.2/blocks/blocks.3/layers.1/conv2/bn/Add_output_0: 3dd48f4f
/seg_model/backbone/stages.2/blocks/blocks.3/layers.1/conv2/act/Relu_output_0: 3db2a14e
/seg_model/backbone/stages.2/blocks/blocks.3/layers.2/conv1/conv/Conv_output_0: 3c54d6d1
/seg_model/backbone/stages.2/blocks/blocks.3/layers.2/conv1/bn/Mul_output_0: 3dd03ffa
/seg_model/backbone/stages.2/blocks/blocks.3/layers.2/conv1/bn/Add_output_0: 3dbd1182
/seg_model/backbone/stages.2/blocks/blocks.3/layers.2/conv2/conv/Conv_output_0: 3c91625c
/seg_model/backbone/stages.2/blocks/blocks.3/layers.2/conv2/bn/Mul_output_0: 3db881db
/seg_model/backbone/stages.2/blocks/blocks.3/layers.2/conv2/bn/Add_output_0: 3db7465d
/seg_model/backbone/stages.2/blocks/blocks.3/layers.2/conv2/act/Relu_output_0: 3db6bb09
/seg_model/backbone/stages.2/blocks/blocks.3/layers.3/conv1/conv/Conv_output_0: 3c66a3af
/seg_model/backbone/stages.2/blocks/blocks.3/layers.3/conv1/bn/Mul_output_0: 3dcc276a
/seg_model/backbone/stages.2/blocks/blocks.3/layers.3/conv1/bn/Add_output_0: 3dc8552a
/seg_model/backbone/stages.2/blocks/blocks.3/layers.3/conv2/conv/Conv_output_0: 3c91b072
/seg_model/backbone/stages.2/blocks/blocks.3/layers.3/conv2/bn/Mul_output_0: 3dc52916
/seg_model/backbone/stages.2/blocks/blocks.3/layers.3/conv2/bn/Add_output_0: 3dd9abac
/seg_model/backbone/stages.2/blocks/blocks.3/layers.3/conv2/act/Relu_output_0: 3dc1ac26
/seg_model/backbone/stages.2/blocks/blocks.3/layers.4/conv1/conv/Conv_output_0: 3c69a7d2
/seg_model/backbone/stages.2/blocks/blocks.3/layers.4/conv1/bn/Mul_output_0: 3dcfd69f
/seg_model/backbone/stages.2/blocks/blocks.3/layers.4/conv1/bn/Add_output_0: 3dd2bfea
/seg_model/backbone/stages.2/blocks/blocks.3/layers.4/conv2/conv/Conv_output_0: 3c95afdd
/seg_model/backbone/stages.2/blocks/blocks.3/layers.4/conv2/bn/Mul_output_0: 3df47121
/seg_model/backbone/stages.2/blocks/blocks.3/layers.4/conv2/bn/Add_output_0: 3df7cef0
/seg_model/backbone/stages.2/blocks/blocks.3/layers.4/conv2/act/Relu_output_0: 3de376fb
/seg_model/backbone/stages.2/blocks/blocks.3/layers.5/conv1/conv/Conv_output_0: 3c7d6777
/seg_model/backbone/stages.2/blocks/blocks.3/layers.5/conv1/bn/Mul_output_0: 3e00f5bb
/seg_model/backbone/stages.2/blocks/blocks.3/layers.5/conv1/bn/Add_output_0: 3de713b5
/seg_model/backbone/stages.2/blocks/blocks.3/layers.5/conv2/conv/Conv_output_0: 3ca50c32
/seg_model/backbone/stages.2/blocks/blocks.3/layers.5/conv2/bn/Mul_output_0: 3e17305a
/seg_model/backbone/stages.2/blocks/blocks.3/layers.5/conv2/bn/Add_output_0: 3e27543f
/seg_model/backbone/stages.2/blocks/blocks.3/layers.5/conv2/act/Relu_output_0: 3dfb1325
/seg_model/backbone/stages.2/blocks/blocks.3/Concat_output_0: 3dd10bd9
/seg_model/backbone/stages.2/blocks/blocks.3/aggregation/aggregation.0/conv/Conv_output_0: 3d3ae873
/seg_model/backbone/stages.2/blocks/blocks.3/aggregation/aggregation.0/bn/Mul_output_0: 3e48e555
/seg_model/backbone/stages.2/blocks/blocks.3/aggregation/aggregation.0/bn/Add_output_0: 3e3a175e
/seg_model/backbone/stages.2/blocks/blocks.3/aggregation/aggregation.0/act/Relu_output_0: 3df7566b
/seg_model/backbone/stages.2/blocks/blocks.3/aggregation/aggregation.1/conv/Conv_output_0: 3c923829
/seg_model/backbone/stages.2/blocks/blocks.3/aggregation/aggregation.1/bn/Mul_output_0: 3e131fac
/seg_model/backbone/stages.2/blocks/blocks.3/aggregation/aggregation.1/bn/Add_output_0: 3df146ea
/seg_model/backbone/stages.2/blocks/blocks.3/aggregation/aggregation.1/act/Relu_output_0: 3e10d584
/seg_model/backbone/stages.2/blocks/blocks.3/Add_output_0: 3e05fadf
/seg_model/backbone/stages.2/blocks/blocks.4/layers.0/conv1/conv/Conv_output_0: 3d3416d7
/seg_model/backbone/stages.2/blocks/blocks.4/layers.0/conv1/bn/Mul_output_0: 3dd5e994
/seg_model/backbone/stages.2/blocks/blocks.4/layers.0/conv1/bn/Add_output_0: 3dcbf7e3
/seg_model/backbone/stages.2/blocks/blocks.4/layers.0/conv2/conv/Conv_output_0: 3c97d524
/seg_model/backbone/stages.2/blocks/blocks.4/layers.0/conv2/bn/Mul_output_0: 3e258eb7
/seg_model/backbone/stages.2/blocks/blocks.4/layers.0/conv2/bn/Add_output_0: 3e2b7a35
/seg_model/backbone/stages.2/blocks/blocks.4/layers.0/conv2/act/Relu_output_0: 3e2792a1
/seg_model/backbone/stages.2/blocks/blocks.4/layers.1/conv1/conv/Conv_output_0: 3cd4942f
/seg_model/backbone/stages.2/blocks/blocks.4/layers.1/conv1/bn/Mul_output_0: 3de22c9b
/seg_model/backbone/stages.2/blocks/blocks.4/layers.1/conv1/bn/Add_output_0: 3dd5427d
/seg_model/backbone/stages.2/blocks/blocks.4/layers.1/conv2/conv/Conv_output_0: 3c8af936
/seg_model/backbone/stages.2/blocks/blocks.4/layers.1/conv2/bn/Mul_output_0: 3e07e6f2
/seg_model/backbone/stages.2/blocks/blocks.4/layers.1/conv2/bn/Add_output_0: 3e0a84ac
/seg_model/backbone/stages.2/blocks/blocks.4/layers.1/conv2/act/Relu_output_0: 3e04c956
/seg_model/backbone/stages.2/blocks/blocks.4/layers.2/conv1/conv/Conv_output_0: 3c88f8c8
/seg_model/backbone/stages.2/blocks/blocks.4/layers.2/conv1/bn/Mul_output_0: 3deb3552
/seg_model/backbone/stages.2/blocks/blocks.4/layers.2/conv1/bn/Add_output_0: 3dec31fb
/seg_model/backbone/stages.2/blocks/blocks.4/layers.2/conv2/conv/Conv_output_0: 3ca65819
/seg_model/backbone/stages.2/blocks/blocks.4/layers.2/conv2/bn/Mul_output_0: 3df93cfb
/seg_model/backbone/stages.2/blocks/blocks.4/layers.2/conv2/bn/Add_output_0: 3e024bd8
/seg_model/backbone/stages.2/blocks/blocks.4/layers.2/conv2/act/Relu_output_0: 3dfa8f62
/seg_model/backbone/stages.2/blocks/blocks.4/layers.3/conv1/conv/Conv_output_0: 3c843c4b
/seg_model/backbone/stages.2/blocks/blocks.4/layers.3/conv1/bn/Mul_output_0: 3e2b329a
/seg_model/backbone/stages.2/blocks/blocks.4/layers.3/conv1/bn/Add_output_0: 3e191faa
/seg_model/backbone/stages.2/blocks/blocks.4/layers.3/conv2/conv/Conv_output_0: 3ca08bf7
/seg_model/backbone/stages.2/blocks/blocks.4/layers.3/conv2/bn/Mul_output_0: 3e04e3c4
/seg_model/backbone/stages.2/blocks/blocks.4/layers.3/conv2/bn/Add_output_0: 3dee7ecf
/seg_model/backbone/stages.2/blocks/blocks.4/layers.3/conv2/act/Relu_output_0: 3e0086d4
/seg_model/backbone/stages.2/blocks/blocks.4/layers.4/conv1/conv/Conv_output_0: 3c1b712a
/seg_model/backbone/stages.2/blocks/blocks.4/layers.4/conv1/bn/Mul_output_0: 3e3aeae8
/seg_model/backbone/stages.2/blocks/blocks.4/layers.4/conv1/bn/Add_output_0: 3e3a837e
/seg_model/backbone/stages.2/blocks/blocks.4/layers.4/conv2/conv/Conv_output_0: 3cb1ab56
/seg_model/backbone/stages.2/blocks/blocks.4/layers.4/conv2/bn/Mul_output_0: 3df26391
/seg_model/backbone/stages.2/blocks/blocks.4/layers.4/conv2/bn/Add_output_0: 3defcdaf
/seg_model/backbone/stages.2/blocks/blocks.4/layers.4/conv2/act/Relu_output_0: 3deb6128
/seg_model/backbone/stages.2/blocks/blocks.4/layers.5/conv1/conv/Conv_output_0: 3c140e80
/seg_model/backbone/stages.2/blocks/blocks.4/layers.5/conv1/bn/Mul_output_0: 3e8c6ac2
/seg_model/backbone/stages.2/blocks/blocks.4/layers.5/conv1/bn/Add_output_0: 3e8a67f5
/seg_model/backbone/stages.2/blocks/blocks.4/layers.5/conv2/conv/Conv_output_0: 3cea804f
/seg_model/backbone/stages.2/blocks/blocks.4/layers.5/conv2/bn/Mul_output_0: 3e97a9c2
/seg_model/backbone/stages.2/blocks/blocks.4/layers.5/conv2/bn/Add_output_0: 3e186cbf
/seg_model/backbone/stages.2/blocks/blocks.4/layers.5/conv2/act/Relu_output_0: 3e2df0dd
/seg_model/backbone/stages.2/blocks/blocks.4/Concat_output_0: 3e0d14b1
/seg_model/backbone/stages.2/blocks/blocks.4/aggregation/aggregation.0/conv/Conv_output_0: 3d750d43
/seg_model/backbone/stages.2/blocks/blocks.4/aggregation/aggregation.0/bn/Mul_output_0: 3e5373b7
/seg_model/backbone/stages.2/blocks/blocks.4/aggregation/aggregation.0/bn/Add_output_0: 3e57ea96
/seg_model/backbone/stages.2/blocks/blocks.4/aggregation/aggregation.0/act/Relu_output_0: 3e0663dd
/seg_model/backbone/stages.2/blocks/blocks.4/aggregation/aggregation.1/conv/Conv_output_0: 3c8a4f06
/seg_model/backbone/stages.2/blocks/blocks.4/aggregation/aggregation.1/bn/Mul_output_0: 3e8c4f51
/seg_model/backbone/stages.2/blocks/blocks.4/aggregation/aggregation.1/bn/Add_output_0: 3e9c7414
/seg_model/backbone/stages.2/blocks/blocks.4/aggregation/aggregation.1/act/Relu_output_0: 3e6fddd9
/seg_model/backbone/stages.2/blocks/blocks.4/Add_output_0: 3e50f0a2
/seg_model/backbone/stages.3/downsample/conv/Conv_output_0: 3d1c728f
/seg_model/backbone/stages.3/downsample/bn/Mul_output_0: 3e1de7ff
/seg_model/backbone/stages.3/downsample/bn/Add_output_0: 3df3aa66
/seg_model/backbone/stages.3/blocks/blocks.0/layers.0/conv1/conv/Conv_output_0: 3d6216f4
/seg_model/backbone/stages.3/blocks/blocks.0/layers.0/conv1/bn/Mul_output_0: 3ddb6533
/seg_model/backbone/stages.3/blocks/blocks.0/layers.0/conv1/bn/Add_output_0: 3de089ee
/seg_model/backbone/stages.3/blocks/blocks.0/layers.0/conv2/conv/Conv_output_0: 3caa760c
/seg_model/backbone/stages.3/blocks/blocks.0/layers.0/conv2/bn/Mul_output_0: 3e6edda1
/seg_model/backbone/stages.3/blocks/blocks.0/layers.0/conv2/bn/Add_output_0: 3e746117
/seg_model/backbone/stages.3/blocks/blocks.0/layers.0/conv2/act/Relu_output_0: 3e3ce562
/seg_model/backbone/stages.3/blocks/blocks.0/layers.1/conv1/conv/Conv_output_0: 3cf4fa3a
/seg_model/backbone/stages.3/blocks/blocks.0/layers.1/conv1/bn/Mul_output_0: 3ddeba08
/seg_model/backbone/stages.3/blocks/blocks.0/layers.1/conv1/bn/Add_output_0: 3de9f58b
/seg_model/backbone/stages.3/blocks/blocks.0/layers.1/conv2/conv/Conv_output_0: 3ca113f5
/seg_model/backbone/stages.3/blocks/blocks.0/layers.1/conv2/bn/Mul_output_0: 3e271f58
/seg_model/backbone/stages.3/blocks/blocks.0/layers.1/conv2/bn/Add_output_0: 3e25f4e7
/seg_model/backbone/stages.3/blocks/blocks.0/layers.1/conv2/act/Relu_output_0: 3e24abfd
/seg_model/backbone/stages.3/blocks/blocks.0/layers.2/conv1/conv/Conv_output_0: 3cf39bf9
/seg_model/backbone/stages.3/blocks/blocks.0/layers.2/conv1/bn/Mul_output_0: 3e07ed1d
/seg_model/backbone/stages.3/blocks/blocks.0/layers.2/conv1/bn/Add_output_0: 3e0c62b6
/seg_model/backbone/stages.3/blocks/blocks.0/layers.2/conv2/conv/Conv_output_0: 3ca57cd9
/seg_model/backbone/stages.3/blocks/blocks.0/layers.2/conv2/bn/Mul_output_0: 3e37ad2c
/seg_model/backbone/stages.3/blocks/blocks.0/layers.2/conv2/bn/Add_output_0: 3e449693
/seg_model/backbone/stages.3/blocks/blocks.0/layers.2/conv2/act/Relu_output_0: 3e0158da
/seg_model/backbone/stages.3/blocks/blocks.0/layers.3/conv1/conv/Conv_output_0: 3c9dbed6
/seg_model/backbone/stages.3/blocks/blocks.0/layers.3/conv1/bn/Mul_output_0: 3dfddca7
/seg_model/backbone/stages.3/blocks/blocks.0/layers.3/conv1/bn/Add_output_0: 3dfaa203
/seg_model/backbone/stages.3/blocks/blocks.0/layers.3/conv2/conv/Conv_output_0: 3ca9cd7e
/seg_model/backbone/stages.3/blocks/blocks.0/layers.3/conv2/bn/Mul_output_0: 3e245e27
/seg_model/backbone/stages.3/blocks/blocks.0/layers.3/conv2/bn/Add_output_0: 3e2250bf
/seg_model/backbone/stages.3/blocks/blocks.0/layers.3/conv2/act/Relu_output_0: 3e059ece
/seg_model/backbone/stages.3/blocks/blocks.0/layers.4/conv1/conv/Conv_output_0: 3c92fc9d
/seg_model/backbone/stages.3/blocks/blocks.0/layers.4/conv1/bn/Mul_output_0: 3e0cd2ff
/seg_model/backbone/stages.3/blocks/blocks.0/layers.4/conv1/bn/Add_output_0: 3e0d29ab
/seg_model/backbone/stages.3/blocks/blocks.0/layers.4/conv2/conv/Conv_output_0: 3cc25bc1
/seg_model/backbone/stages.3/blocks/blocks.0/layers.4/conv2/bn/Mul_output_0: 3e307793
/seg_model/backbone/stages.3/blocks/blocks.0/layers.4/conv2/bn/Add_output_0: 3e371e8c
/seg_model/backbone/stages.3/blocks/blocks.0/layers.4/conv2/act/Relu_output_0: 3dfcb51e
/seg_model/backbone/stages.3/blocks/blocks.0/layers.5/conv1/conv/Conv_output_0: 3c85eca0
/seg_model/backbone/stages.3/blocks/blocks.0/layers.5/conv1/bn/Mul_output_0: 3e4aebb6
/seg_model/backbone/stages.3/blocks/blocks.0/layers.5/conv1/bn/Add_output_0: 3e3fa41e
/seg_model/backbone/stages.3/blocks/blocks.0/layers.5/conv2/conv/Conv_output_0: 3ce290e5
/seg_model/backbone/stages.3/blocks/blocks.0/layers.5/conv2/bn/Mul_output_0: 3e93d066
/seg_model/backbone/stages.3/blocks/blocks.0/layers.5/conv2/bn/Add_output_0: 3e98604d
/seg_model/backbone/stages.3/blocks/blocks.0/layers.5/conv2/act/Relu_output_0: 3e6f52da
/seg_model/backbone/stages.3/blocks/blocks.0/Concat_output_0: 3e0ef7f7
/seg_model/backbone/stages.3/blocks/blocks.0/aggregation/aggregation.0/conv/Conv_output_0: 3e0b83bd
/seg_model/backbone/stages.3/blocks/blocks.0/aggregation/aggregation.0/bn/Mul_output_0: 3e4c5bdb
/seg_model/backbone/stages.3/blocks/blocks.0/aggregation/aggregation.0/bn/Add_output_0: 3e50eea0
/seg_model/backbone/stages.3/blocks/blocks.0/aggregation/aggregation.0/act/Relu_output_0: 3e41c55b
/seg_model/backbone/stages.3/blocks/blocks.0/aggregation/aggregation.1/conv/Conv_output_0: 3d74424b
/seg_model/backbone/stages.3/blocks/blocks.0/aggregation/aggregation.1/bn/Mul_output_0: 3ed2d9b2
/seg_model/backbone/stages.3/blocks/blocks.0/aggregation/aggregation.1/bn/Add_output_0: 3ed6417a
/seg_model/backbone/stages.3/blocks/blocks.0/aggregation/aggregation.1/act/Relu_output_0: 3eaa433b
/seg_model/backbone/stages.3/blocks/blocks.1/layers.0/conv1/conv/Conv_output_0: 3d8c87d0
/seg_model/backbone/stages.3/blocks/blocks.1/layers.0/conv1/bn/Mul_output_0: 3dc93612
/seg_model/backbone/stages.3/blocks/blocks.1/layers.0/conv1/bn/Add_output_0: 3dd7b522
/seg_model/backbone/stages.3/blocks/blocks.1/layers.0/conv2/conv/Conv_output_0: 3ca3bf9c
/seg_model/backbone/stages.3/blocks/blocks.1/layers.0/conv2/bn/Mul_output_0: 3e7943b0
/seg_model/backbone/stages.3/blocks/blocks.1/layers.0/conv2/bn/Add_output_0: 3e79b2ec
/seg_model/backbone/stages.3/blocks/blocks.1/layers.0/conv2/act/Relu_output_0: 3e6d8dec
/seg_model/backbone/stages.3/blocks/blocks.1/layers.1/conv1/conv/Conv_output_0: 3d66ceba
/seg_model/backbone/stages.3/blocks/blocks.1/layers.1/conv1/bn/Mul_output_0: 3defb420
/seg_model/backbone/stages.3/blocks/blocks.1/layers.1/conv1/bn/Add_output_0: 3de2d972
/seg_model/backbone/stages.3/blocks/blocks.1/layers.1/conv2/conv/Conv_output_0: 3ccdc5d1
/seg_model/backbone/stages.3/blocks/blocks.1/layers.1/conv2/bn/Mul_output_0: 3e959f56
/seg_model/backbone/stages.3/blocks/blocks.1/layers.1/conv2/bn/Add_output_0: 3e95bb94
/seg_model/backbone/stages.3/blocks/blocks.1/layers.1/conv2/act/Relu_output_0: 3e48b5f4
/seg_model/backbone/stages.3/blocks/blocks.1/layers.2/conv1/conv/Conv_output_0: 3d101aa0
/seg_model/backbone/stages.3/blocks/blocks.1/layers.2/conv1/bn/Mul_output_0: 3e3cfcd8
/seg_model/backbone/stages.3/blocks/blocks.1/layers.2/conv1/bn/Add_output_0: 3e329c51
/seg_model/backbone/stages.3/blocks/blocks.1/layers.2/conv2/conv/Conv_output_0: 3cce3f57
/seg_model/backbone/stages.3/blocks/blocks.1/layers.2/conv2/bn/Mul_output_0: 3e832f74
/seg_model/backbone/stages.3/blocks/blocks.1/layers.2/conv2/bn/Add_output_0: 3e7d0f4c
/seg_model/backbone/stages.3/blocks/blocks.1/layers.2/conv2/act/Relu_output_0: 3e27c9a1
/seg_model/backbone/stages.3/blocks/blocks.1/layers.3/conv1/conv/Conv_output_0: 3cdadf1a
/seg_model/backbone/stages.3/blocks/blocks.1/layers.3/conv1/bn/Mul_output_0: 3e51a70f
/seg_model/backbone/stages.3/blocks/blocks.1/layers.3/conv1/bn/Add_output_0: 3e4d2cf6
/seg_model/backbone/stages.3/blocks/blocks.1/layers.3/conv2/conv/Conv_output_0: 3cfacbe3
/seg_model/backbone/stages.3/blocks/blocks.1/layers.3/conv2/bn/Mul_output_0: 3e8f170c
/seg_model/backbone/stages.3/blocks/blocks.1/layers.3/conv2/bn/Add_output_0: 3e90f252
/seg_model/backbone/stages.3/blocks/blocks.1/layers.3/conv2/act/Relu_output_0: 3e4d24ce
/seg_model/backbone/stages.3/blocks/blocks.1/layers.4/conv1/conv/Conv_output_0: 3c998e4a
/seg_model/backbone/stages.3/blocks/blocks.1/layers.4/conv1/bn/Mul_output_0: 3e695c8b
/seg_model/backbone/stages.3/blocks/blocks.1/layers.4/conv1/bn/Add_output_0: 3e7c9f3e
/seg_model/backbone/stages.3/blocks/blocks.1/layers.4/conv2/conv/Conv_output_0: 3ce3a0e2
/seg_model/backbone/stages.3/blocks/blocks.1/layers.4/conv2/bn/Mul_output_0: 3e0ac60d
/seg_model/backbone/stages.3/blocks/blocks.1/layers.4/conv2/bn/Add_output_0: 3df3bb63
/seg_model/backbone/stages.3/blocks/blocks.1/layers.4/conv2/act/Relu_output_0: 3dc98121
/seg_model/backbone/stages.3/blocks/blocks.1/layers.5/conv1/conv/Conv_output_0: 3c4d0241
/seg_model/backbone/stages.3/blocks/blocks.1/layers.5/conv1/bn/Mul_output_0: 3ed9040f
/seg_model/backbone/stages.3/blocks/blocks.1/layers.5/conv1/bn/Add_output_0: 3eba38b6
/seg_model/backbone/stages.3/blocks/blocks.1/layers.5/conv2/conv/Conv_output_0: 3d25ea52
/seg_model/backbone/stages.3/blocks/blocks.1/layers.5/conv2/bn/Mul_output_0: 3f062f91
/seg_model/backbone/stages.3/blocks/blocks.1/layers.5/conv2/bn/Add_output_0: 3f1b7481
/seg_model/backbone/stages.3/blocks/blocks.1/layers.5/conv2/act/Relu_output_0: 3e827209
/seg_model/backbone/stages.3/blocks/blocks.1/Concat_output_0: 3e7f8f55
/seg_model/backbone/stages.3/blocks/blocks.1/aggregation/aggregation.0/conv/Conv_output_0: 3e5148cd
/seg_model/backbone/stages.3/blocks/blocks.1/aggregation/aggregation.0/bn/Mul_output_0: 3e651003
/seg_model/backbone/stages.3/blocks/blocks.1/aggregation/aggregation.0/bn/Add_output_0: 3e721091
/seg_model/backbone/stages.3/blocks/blocks.1/aggregation/aggregation.0/act/Relu_output_0: 3df5471c
/seg_model/backbone/stages.3/blocks/blocks.1/aggregation/aggregation.1/conv/Conv_output_0: 3d05900a
/seg_model/backbone/stages.3/blocks/blocks.1/aggregation/aggregation.1/bn/Mul_output_0: 3f6e910f
/seg_model/backbone/stages.3/blocks/blocks.1/aggregation/aggregation.1/bn/Add_output_0: 3f299cab
/seg_model/backbone/stages.3/blocks/blocks.1/aggregation/aggregation.1/act/Relu_output_0: 3f0ad06e
/seg_model/backbone/stages.3/blocks/blocks.1/Add_output_0: 3f23a6b6
/seg_model/dfine_model/backbone/stem/stem1/conv/Conv_output_0: 3d54ef1a
/seg_model/dfine_model/backbone/stem/stem1/bn/Mul_output_0: 3c422b6c
/seg_model/dfine_model/backbone/stem/stem1/bn/Add_output_0: 3c70ae84
/seg_model/dfine_model/backbone/stem/stem1/act/Relu_output_0: 3c714f49
ONNXTRT_Broadcast_2992_output: 3b93563c
/seg_model/seg_head/decoder/decoder.3/Conv_output_0: 3dec070e
/seg_model/dfine_model/decoder/decoder/layers.2/self_attn/Transpose_6_output_0: 3f14a7c2
/seg_model/dfine_model/decoder/decoder/layers.3/cross_attn/Reshape_5_output_0: 3ccfcefe
seg_model.dfine_model.decoder.decoder.layers.3.linear1.bias_output: 3c0403bf
seg_model.dfine_model.decoder.decoder.lqe_layers.5.reg_conf.layers.1.bias_output: 3a95c367
/seg_model/dfine_model/decoder/decoder/Sub_29_output_0: 3bfbc274
onnx::Add_13584_output: 3b98ad86
/seg_model/dfine_model/decoder/decoder/layers.3/gateway/Concat_output_0: 3ca6cf2a
/seg_model/dfine_model/decoder/decoder/layers.2/cross_attn/Sub_output_0: 3c29d769
/seg_model/dfine_model/decoder/decoder/layers.4/self_attn/Constant_7_output_0_output: 3ab67d3d
/seg_model/dfine_model/decoder/decoder/Cast_7_output_0: 3d810a14
/seg_model/dfine_model/decoder/decoder/Add_56_output_0: 3c7ffc68
/seg_model/dfine_model/decoder/decoder/query_pos_head/layers.0_2/MatMul_output_0: 3d993b05
/seg_model/dfine_model/decoder/decoder/dec_bbox_head.2/layers.2/Add_output_0: 3dfc98c5
/seg_model/dfine_model/decoder/decoder/layers.2/linear1/Add_output_0: 3e887d98
/seg_model/dfine_model/decoder/decoder/Gather_28_output_0: 3d6e41cf
/seg_model/dfine_model/decoder/decoder/Div_9_output_0: 3a810a14
/seg_model/seg_head/aspp/Resize_output_0: 3d0f0b1b
/seg_model/dfine_model/decoder/decoder/layers.5/cross_attn/Concat_7_output_0: 3cce230c
/seg_model/dfine_model/decoder/decoder/layers.5/cross_attn/GridSample_output_0: 3cadb4ae
ONNXTRT_Broadcast_1666_output: 3c010a14
/seg_model/dfine_model/decoder/decoder/layers.2/cross_attn/Constant_22_output_0_output: 3c010a14
ONNXTRT_Broadcast_1499_output: 3d810a14
/seg_model/dfine_model/decoder/decoder/layers.2/cross_attn/Mul_3_output_0: 3c86dcd6
/seg_model/dfine_model/decoder/decoder/layers.4/cross_attn/Sub_output_0: 3c4015ca
ONNXTRT_Broadcast_1664_output: 3c810a14
/seg_model/dfine_model/decoder/decoder/layers.2/cross_attn/Transpose_output_0: 3c29d769
/seg_model/dfine_model/decoder/decoder/layers.2/cross_attn/Constant_21_output_0_output: 3c810a14
onnx::MatMul_13585_output: 3c2f085d
/seg_model/dfine_model/decoder/decoder/layers.2/self_attn/Add_output_0: 3e2b34d5
/seg_model/dfine_model/decoder/decoder/Sub_22_output_0: 3c01220d
/seg_model/seg_head/fpn/Add_1_output_0: 3f0021fb
/seg_model/seg_head/decoder/decoder.7/Conv_output_0: 3fb4c423
/seg_model/dfine_model/decoder/decoder/layers.5/gateway/Slice_1_output_0: 3c00dc1e
ONNXTRT_Broadcast_1965_output: 3c01af80
/seg_model/dfine_model/decoder/decoder/layers.5/gateway/norm/LayerNormalization_output_0: 3dd8c8e2
/seg_model/dfine_model/decoder/decoder/integral_1/Softmax_output_0: 3be6bb91
/seg_model/dfine_model/decoder/decoder/layers.4/self_attn/Transpose_6_output_0: 3e83857e
/seg_model/dfine_model/decoder/decoder/lqe_layers.5/Concat_2_output_0: 3c0127e7
/seg_model/dfine_model/decoder/decoder/layers.5/Add_3_output_0: 3eeaa7ce
seg_model.dfine_model.decoder.decoder.layers.4.self_attn.out_proj.bias_output: 3b84e06f
/seg_model/dfine_model/decoder/decoder/Add_39_output_0: 3f621730
/seg_model/dfine_model/decoder/decoder/layers.1/cross_attn/Reshape_4_output_0: 3c9d03be
ONNXTRT_Broadcast_1855_output: 3c80aefe
ONNXTRT_Broadcast_2297_output: 3c810a14
/seg_model/dfine_model/decoder/decoder/dec_bbox_head.2/layers.1/Add_output_0: 3e61477a
ONNXTRT_Broadcast_1973_output: 3b2c06e0
onnx::Mul_13733_output: 3c1b9f94
/seg_model/dfine_model/decoder/decoder/Unsqueeze_28_output_0: 3bfffaf6
/seg_model/dfine_model/decoder/decoder/layers.2/cross_attn/Transpose_1_output_0: 3bdc1a20
/seg_model/dfine_model/backbone/stem/Pad_output_0: 3c714f49
/seg_model/dfine_model/backbone/stem/stem2a/conv/Conv_output_0: 3c88f66a
/seg_model/dfine_model/backbone/stem/stem2a/bn/Mul_output_0: 3c9e0305
/seg_model/dfine_model/backbone/stem/stem2a/bn/Add_output_0: 3c9076fe
/seg_model/dfine_model/backbone/stem/stem2a/act/Relu_output_0: 3c6791ed
/seg_model/dfine_model/decoder/decoder/Split_2_output_2: 3c013005
/seg_model/dfine_model/decoder/decoder/layers.3/norm3/LayerNormalization_output_0: 3d01fffb
ONNXTRT_Broadcast_2307_output: 3b26a223
/seg_model/dfine_model/decoder/decoder/Unsqueeze_41_output_0: 3c0213ce
onnx::MatMul_13552_output: 3cb73484
onnx::MatMul_13499_output: 3c91c385
ONNXTRT_Broadcast_2238_output: 3c37fd84
/seg_model/dfine_model/decoder/decoder/layers.3/self_attn/Reshape_3_output_0: 3dc816c9
/seg_model/dfine_model/decoder/decoder/layers.3/Add_output_0: 3d92a593
/seg_model/dfine_model/decoder/decoder/layers.3/self_attn/Softmax_output: 3ac1c387
/seg_model/dfine_model/decoder/decoder/lqe_layers.5/TopK_output_0: 3c01d675
seg_model.dfine_model.decoder.dec_bbox_head.3.layers.0.bias_output: 3c01168f
onnx::Add_13580_output: 3c140b15
/seg_model/dfine_model/decoder/decoder/layers.2/cross_attn/Slice_1_output_0: 3bffdd52
seg_model.dfine_model.decoder.dec_bbox_head.2.layers.0.bias_output: 3c376dc9
/seg_model/dfine_model/decoder/decoder/layers.2/linear2/Add_output_0: 40cd878a
/seg_model/dfine_model/decoder/decoder/Sub_38_output_0: 3c012d1e
ONNXTRT_Broadcast_2142_output: 3b8bedd3
/seg_model/dfine_model/decoder/decoder/Split_5_output_3: 3c01114e
onnx::MatMul_13642_output: 3b9c2b3c
onnx::MatMul_13614_output: 3c37fd84
/seg_model/seg_head/fpn/fpn_convs.2/fpn_convs.2.0/Conv_output_0: 3d6c8871
/seg_model/dfine_model/decoder/decoder/layers.2/cross_attn/Add_output_0: 3c06dcd6
/seg_model/dfine_model/decoder/decoder/Gather_29_output_0: 3d54eb61
/seg_model/dfine_model/decoder/decoder/query_pos_head/layers.0_4/MatMul_output_0: 3d994331
/seg_model/dfine_model/decoder/decoder/Add_34_output_0: 3d9d6d07
/seg_model/dfine_model/decoder/decoder/Unsqueeze_26_output_0: 3c013005
ONNXTRT_Broadcast_2313_output: 3c816d1f
/seg_model/dfine_model/decoder/decoder/integral_3/MatMul_output: 3d669ccf
ONNXTRT_Broadcast_2218_output: 3c0403bf
onnx::MatMul_13723_output: 3b93563c
/seg_model/dfine_model/decoder/decoder/layers.4/cross_attn/GridSample_output_0: 3cb04b4c
/seg_model/dfine_model/decoder/decoder/layers.2/activation/Relu_output_0: 3e8a98d7
seg_model.dfine_model.decoder.decoder.layers.3.gateway.gate.bias_output: 3b8bedd3
/seg_model/dfine_model/decoder/decoder/Split_1_output_3: 3c012533
/seg_model/dfine_model/decoder/decoder/layers.5/cross_attn/Reshape_5_output_0: 3ccfcefe
/seg_model/dfine_model/decoder/decoder/dec_bbox_head.5/layers.2/MatMul_output_0: 3ccc43ec
/seg_model/dfine_model/decoder/decoder/layers.2/cross_attn/Mul_2_output_0: 3b9cd5c1
/seg_model/dfine_model/decoder/decoder/integral_5/MatMul_output: 3d6987bf
/seg_model/dfine_model/decoder/decoder/Unsqueeze_60_output_0: 3d878a2c
/seg_model/dfine_model/decoder/decoder/Add_41_output_0: 3db9f7a1
/seg_model/dfine_model/decoder/decoder/Squeeze_21_output_0: 3bfbc57b
/seg_model/dfine_model/decoder/decoder/dec_score_head.5/Add_output_0: 3d87b570
/postprocessor/Split_output_2: 3c012d1e
ONNXTRT_Broadcast_1583_output: 3d30ffaa
/seg_model/dfine_model/decoder/decoder/layers.2/cross_attn/Reshape_output_0: 3e034786
ONNXTRT_Broadcast_1837_output: 3cb36d17
ONNXTRT_Broadcast_2601_output: 3bea703c
/seg_model/dfine_model/backbone/stem/Pad_1_output_0: 3c6791ed
/seg_model/dfine_model/backbone/stem/stem2b/conv/Conv_output_0: 3c345bc4
/seg_model/dfine_model/backbone/stem/stem2b/bn/Mul_output_0: 3ccf0b2b
/seg_model/dfine_model/backbone/stem/stem2b/bn/Add_output_0: 3cac401a
/seg_model/dfine_model/backbone/stem/stem2b/act/Relu_output_0: 3ca1ffb8
/seg_model/dfine_model/backbone/stem/pool/MaxPool_output_0: 3c714f49
/seg_model/dfine_model/backbone/stem/Concat_2_output_0: 3ca2744c
/seg_model/dfine_model/backbone/stem/stem3/conv/Conv_output_0: 3d4a9d31
/seg_model/dfine_model/backbone/stem/stem3/bn/Mul_output_0: 3c8de8eb
/seg_model/dfine_model/backbone/stem/stem3/bn/Add_output_0: 3c832163
/seg_model/dfine_model/backbone/stem/stem3/act/Relu_output_0: 3c74074e
/seg_model/dfine_model/backbone/stem/stem4/conv/Conv_output_0: 3c3a7c8a
/seg_model/dfine_model/backbone/stem/stem4/bn/Mul_output_0: 3d1af968
/seg_model/dfine_model/backbone/stem/stem4/bn/Add_output_0: 3cd88221
/seg_model/dfine_model/backbone/stem/stem4/act/Relu_output_0: 3cbbde5a
/seg_model/dfine_model/backbone/stages.0/blocks/blocks.0/layers.0/conv/Conv_output_0: 3cf129db
/seg_model/dfine_model/backbone/stages.0/blocks/blocks.0/layers.0/bn/Mul_output_0: 3de67c11
/seg_model/dfine_model/backbone/stages.0/blocks/blocks.0/layers.0/bn/Add_output_0: 3dee268f
/seg_model/dfine_model/backbone/stages.0/blocks/blocks.0/layers.0/act/Relu_output_0: 3d551481
/seg_model/dfine_model/backbone/stages.0/blocks/blocks.0/layers.1/conv/Conv_output_0: 3d1b7134
/seg_model/dfine_model/backbone/stages.0/blocks/blocks.0/layers.1/bn/Mul_output_0: 3e053c01
/seg_model/dfine_model/backbone/stages.0/blocks/blocks.0/layers.1/bn/Add_output_0: 3dcd0569
/seg_model/dfine_model/backbone/stages.0/blocks/blocks.0/layers.1/act/Relu_output_0: 3d9b0f75
/seg_model/dfine_model/backbone/stages.0/blocks/blocks.0/layers.2/conv/Conv_output_0: 3d1cc834
/seg_model/dfine_model/backbone/stages.0/blocks/blocks.0/layers.2/bn/Mul_output_0: 3da670af
/seg_model/dfine_model/backbone/stages.0/blocks/blocks.0/layers.2/bn/Add_output_0: 3d77c058
/seg_model/dfine_model/backbone/stages.0/blocks/blocks.0/layers.2/act/Relu_output_0: 3d4becf5
/seg_model/dfine_model/backbone/stages.0/blocks/blocks.0/layers.3/conv/Conv_output_0: 3d0853ed
/seg_model/dfine_model/backbone/stages.0/blocks/blocks.0/layers.3/bn/Mul_output_0: 3df16e85
/seg_model/dfine_model/backbone/stages.0/blocks/blocks.0/layers.3/bn/Add_output_0: 3d8b39df
/seg_model/dfine_model/backbone/stages.0/blocks/blocks.0/layers.3/act/Relu_output_0: 3d27ecb0
/seg_model/dfine_model/backbone/stages.0/blocks/blocks.0/layers.4/conv/Conv_output_0: 3ccd2005
/seg_model/dfine_model/backbone/stages.0/blocks/blocks.0/layers.4/bn/Mul_output_0: 3d6a7875
/seg_model/dfine_model/backbone/stages.0/blocks/blocks.0/layers.4/bn/Add_output_0: 3d4e17f9
/seg_model/dfine_model/backbone/stages.0/blocks/blocks.0/layers.4/act/Relu_output_0: 3d3830a2
/seg_model/dfine_model/backbone/stages.0/blocks/blocks.0/layers.5/conv/Conv_output_0: 3c88e1d6
/seg_model/dfine_model/backbone/stages.0/blocks/blocks.0/layers.5/bn/Mul_output_0: 3db447bd
/seg_model/dfine_model/backbone/stages.0/blocks/blocks.0/layers.5/bn/Add_output_0: 3da32343
/seg_model/dfine_model/backbone/stages.0/blocks/blocks.0/layers.5/act/Relu_output_0: 3d77ade2
/seg_model/dfine_model/backbone/stages.0/blocks/blocks.0/Concat_output_0: 3d4a33e4
/seg_model/dfine_model/backbone/stages.0/blocks/blocks.0/aggregation/aggregation.0/conv/Conv_output_0: 3d464470
/seg_model/dfine_model/backbone/stages.0/blocks/blocks.0/aggregation/aggregation.0/bn/Mul_output_0: 3e7af416
/seg_model/dfine_model/backbone/stages.0/blocks/blocks.0/aggregation/aggregation.0/bn/Add_output_0: 3e731863
/seg_model/dfine_model/backbone/stages.0/blocks/blocks.0/aggregation/aggregation.0/act/Relu_output_0: 3e654bff
/seg_model/dfine_model/backbone/stages.0/blocks/blocks.0/aggregation/aggregation.1/conv/Conv_output_0: 3dee4b9a
/seg_model/dfine_model/backbone/stages.0/blocks/blocks.0/aggregation/aggregation.1/bn/Mul_output_0: 3e2a88f3
/seg_model/dfine_model/backbone/stages.0/blocks/blocks.0/aggregation/aggregation.1/bn/Add_output_0: 3e075825
/seg_model/dfine_model/backbone/stages.0/blocks/blocks.0/aggregation/aggregation.1/act/Relu_output_0: 3e099c08
/seg_model/dfine_model/backbone/stages.1/downsample/conv/Conv_output_0: 3d814d86
/seg_model/dfine_model/backbone/stages.1/downsample/bn/Mul_output_0: 3e40360b
/seg_model/dfine_model/backbone/stages.1/downsample/bn/Add_output_0: 3dd400d5
/seg_model/dfine_model/backbone/stages.1/blocks/blocks.0/layers.0/conv/Conv_output_0: 3df240f3
/seg_model/dfine_model/backbone/stages.1/blocks/blocks.0/layers.0/bn/Mul_output_0: 3e3dbb75
/seg_model/dfine_model/backbone/stages.1/blocks/blocks.0/layers.0/bn/Add_output_0: 3e5ba9fe
/seg_model/dfine_model/backbone/stages.1/blocks/blocks.0/layers.0/act/Relu_output_0: 3e2fdf45
/seg_model/dfine_model/backbone/stages.1/blocks/blocks.0/layers.1/conv/Conv_output_0: 3d96d3ec
/seg_model/dfine_model/backbone/stages.1/blocks/blocks.0/layers.1/bn/Mul_output_0: 3e081211
/seg_model/dfine_model/backbone/stages.1/blocks/blocks.0/layers.1/bn/Add_output_0: 3e04243a
/seg_model/dfine_model/backbone/stages.1/blocks/blocks.0/layers.1/act/Relu_output_0: 3db5ad74
/seg_model/dfine_model/backbone/stages.1/blocks/blocks.0/layers.2/conv/Conv_output_0: 3d1d6333
/seg_model/dfine_model/backbone/stages.1/blocks/blocks.0/layers.2/bn/Mul_output_0: 3e1b4903
/seg_model/dfine_model/backbone/stages.1/blocks/blocks.0/layers.2/bn/Add_output_0: 3e0a9090
/seg_model/dfine_model/backbone/stages.1/blocks/blocks.0/layers.2/act/Relu_output_0: 3d99d1ff
/seg_model/dfine_model/backbone/stages.1/blocks/blocks.0/layers.3/conv/Conv_output_0: 3cd98af7
/seg_model/dfine_model/backbone/stages.1/blocks/blocks.0/layers.3/bn/Mul_output_0: 3dbbbfd5
/seg_model/dfine_model/backbone/stages.1/blocks/blocks.0/layers.3/bn/Add_output_0: 3da4b4ea
/seg_model/dfine_model/backbone/stages.1/blocks/blocks.0/layers.3/act/Relu_output_0: 3d96781b
/seg_model/dfine_model/backbone/stages.1/blocks/blocks.0/layers.4/conv/Conv_output_0: 3cd46ed3
/seg_model/dfine_model/backbone/stages.1/blocks/blocks.0/layers.4/bn/Mul_output_0: 3e008be2
/seg_model/dfine_model/backbone/stages.1/blocks/blocks.0/layers.4/bn/Add_output_0: 3dc0f6d1
/seg_model/dfine_model/backbone/stages.1/blocks/blocks.0/layers.4/act/Relu_output_0: 3db19927
/seg_model/dfine_model/backbone/stages.1/blocks/blocks.0/layers.5/conv/Conv_output_0: 3ce9fd62
/seg_model/dfine_model/backbone/stages.1/blocks/blocks.0/layers.5/bn/Mul_output_0: 3e26f023
/seg_model/dfine_model/backbone/stages.1/blocks/blocks.0/layers.5/bn/Add_output_0: 3e2900b6
/seg_model/dfine_model/backbone/stages.1/blocks/blocks.0/layers.5/act/Relu_output_0: 3dd27adc
/seg_model/dfine_model/backbone/stages.1/blocks/blocks.0/Concat_output_0: 3e305feb
/seg_model/dfine_model/backbone/stages.1/blocks/blocks.0/aggregation/aggregation.0/conv/Conv_output_0: 3e0c315a
/seg_model/dfine_model/backbone/stages.1/blocks/blocks.0/aggregation/aggregation.0/bn/Mul_output_0: 3e1a4671
/seg_model/dfine_model/backbone/stages.1/blocks/blocks.0/aggregation/aggregation.0/bn/Add_output_0: 3e041c11
/seg_model/dfine_model/backbone/stages.1/blocks/blocks.0/aggregation/aggregation.0/act/Relu_output_0: 3e041c11
/seg_model/dfine_model/backbone/stages.1/blocks/blocks.0/aggregation/aggregation.1/conv/Conv_output_0: 3ddb8b30
/seg_model/dfine_model/backbone/stages.1/blocks/blocks.0/aggregation/aggregation.1/bn/Mul_output_0: 3e32ffd9
/seg_model/dfine_model/backbone/stages.1/blocks/blocks.0/aggregation/aggregation.1/bn/Add_output_0: 3e21ea01
/seg_model/dfine_model/backbone/stages.1/blocks/blocks.0/aggregation/aggregation.1/act/Relu_output_0: 3e21ea01
/seg_model/dfine_model/backbone/stages.1/blocks/blocks.1/layers.0/conv/Conv_output_0: 3dfe6df7
/seg_model/dfine_model/backbone/stages.1/blocks/blocks.1/layers.0/bn/Mul_output_0: 3e782a9c
/seg_model/dfine_model/backbone/stages.1/blocks/blocks.1/layers.0/bn/Add_output_0: 3e6add6e
/seg_model/dfine_model/backbone/stages.1/blocks/blocks.1/layers.0/act/Relu_output_0: 3e6d0886
/seg_model/dfine_model/backbone/stages.1/blocks/blocks.1/layers.1/conv/Conv_output_0: 3daa2eae
/seg_model/dfine_model/backbone/stages.1/blocks/blocks.1/layers.1/bn/Mul_output_0: 3ee8c694
/seg_model/dfine_model/backbone/stages.1/blocks/blocks.1/layers.1/bn/Add_output_0: 3edb3074
/seg_model/dfine_model/backbone/stages.1/blocks/blocks.1/layers.1/act/Relu_output_0: 3e11f025
/seg_model/dfine_model/backbone/stages.1/blocks/blocks.1/layers.2/conv/Conv_output_0: 3db42ba2
/seg_model/dfine_model/backbone/stages.1/blocks/blocks.1/layers.2/bn/Mul_output_0: 3e2738db
/seg_model/dfine_model/backbone/stages.1/blocks/blocks.1/layers.2/bn/Add_output_0: 3e0cd9f1
/seg_model/dfine_model/backbone/stages.1/blocks/blocks.1/layers.2/act/Relu_output_0: 3e0c9025
/seg_model/dfine_model/backbone/stages.1/blocks/blocks.1/layers.3/conv/Conv_output_0: 3d2ff2f4
/seg_model/dfine_model/backbone/stages.1/blocks/blocks.1/layers.3/bn/Mul_output_0: 3e28a250
/seg_model/dfine_model/backbone/stages.1/blocks/blocks.1/layers.3/bn/Add_output_0: 3e0b6a03
/seg_model/dfine_model/backbone/stages.1/blocks/blocks.1/layers.3/act/Relu_output_0: 3d960709
/seg_model/dfine_model/backbone/stages.1/blocks/blocks.1/layers.4/conv/Conv_output_0: 3ccf7d84
/seg_model/dfine_model/backbone/stages.1/blocks/blocks.1/layers.4/bn/Mul_output_0: 3dcaabb8
/seg_model/dfine_model/backbone/stages.1/blocks/blocks.1/layers.4/bn/Add_output_0: 3db94125
/seg_model/dfine_model/backbone/stages.1/blocks/blocks.1/layers.4/act/Relu_output_0: 3daf5d65
/seg_model/dfine_model/backbone/stages.1/blocks/blocks.1/layers.5/conv/Conv_output_0: 3cb90428
/seg_model/dfine_model/backbone/stages.1/blocks/blocks.1/layers.5/bn/Mul_output_0: 3e02ff09
/seg_model/dfine_model/backbone/stages.1/blocks/blocks.1/layers.5/bn/Add_output_0: 3df4e098
/seg_model/dfine_model/backbone/stages.1/blocks/blocks.1/layers.5/act/Relu_output_0: 3da21dec
/seg_model/dfine_model/backbone/stages.1/blocks/blocks.1/Concat_output_0: 3e5040ce
/seg_model/dfine_model/backbone/stages.1/blocks/blocks.1/aggregation/aggregation.0/conv/Conv_output_0: 3d48ce05
/seg_model/dfine_model/backbone/stages.1/blocks/blocks.1/aggregation/aggregation.0/bn/Mul_output_0: 3e8a067a
/seg_model/dfine_model/backbone/stages.1/blocks/blocks.1/aggregation/aggregation.0/bn/Add_output_0: 3e80068c
/seg_model/dfine_model/backbone/stages.1/blocks/blocks.1/aggregation/aggregation.0/act/Relu_output_0: 3e80ce7e
/seg_model/dfine_model/backbone/stages.1/blocks/blocks.1/aggregation/aggregation.1/conv/Conv_output_0: 3d1194f0
/seg_model/dfine_model/backbone/stages.1/blocks/blocks.1/aggregation/aggregation.1/bn/Mul_output_0: 3e87b551
/seg_model/dfine_model/backbone/stages.1/blocks/blocks.1/aggregation/aggregation.1/bn/Add_output_0: 3e644df6
/seg_model/dfine_model/backbone/stages.1/blocks/blocks.1/aggregation/aggregation.1/act/Relu_output_0: 3e3ba089
/seg_model/dfine_model/backbone/stages.1/blocks/blocks.1/Add_output_0: 3e316e93
/seg_model/dfine_model/backbone/stages.2/downsample/conv/Conv_output_0: 3d5c27ad
/seg_model/dfine_model/backbone/stages.2/downsample/bn/Mul_output_0: 3ea2189b
/seg_model/dfine_model/backbone/stages.2/downsample/bn/Add_output_0: 3e970db8
/seg_model/dfine_model/backbone/stages.2/blocks/blocks.0/layers.0/conv1/conv/Conv_output_0: 3e4dae2d
/seg_model/dfine_model/backbone/stages.2/blocks/blocks.0/layers.0/conv1/bn/Mul_output_0: 3e3dae07
/seg_model/dfine_model/backbone/stages.2/blocks/blocks.0/layers.0/conv1/bn/Add_output_0: 3e3db509
/seg_model/dfine_model/backbone/stages.2/blocks/blocks.0/layers.0/conv2/conv/Conv_output_0: 3d8707c5
/seg_model/dfine_model/backbone/stages.2/blocks/blocks.0/layers.0/conv2/bn/Mul_output_0: 3e964623
/seg_model/dfine_model/backbone/stages.2/blocks/blocks.0/layers.0/conv2/bn/Add_output_0: 3e9a6bcb
/seg_model/dfine_model/backbone/stages.2/blocks/blocks.0/layers.0/conv2/act/Relu_output_0: 3e91dbc4
/seg_model/dfine_model/backbone/stages.2/blocks/blocks.0/layers.1/conv1/conv/Conv_output_0: 3dc4b57b
/seg_model/dfine_model/backbone/stages.2/blocks/blocks.0/layers.1/conv1/bn/Mul_output_0: 3e559e63
/seg_model/dfine_model/backbone/stages.2/blocks/blocks.0/layers.1/conv1/bn/Add_output_0: 3e48d814
/seg_model/dfine_model/backbone/stages.2/blocks/blocks.0/layers.1/conv2/conv/Conv_output_0: 3d4c4865
/seg_model/dfine_model/backbone/stages.2/blocks/blocks.0/layers.1/conv2/bn/Mul_output_0: 3e8ff435
/seg_model/dfine_model/backbone/stages.2/blocks/blocks.0/layers.1/conv2/bn/Add_output_0: 3e91ce82
/seg_model/dfine_model/backbone/stages.2/blocks/blocks.0/layers.1/conv2/act/Relu_output_0: 3e607aa4
/seg_model/dfine_model/backbone/stages.2/blocks/blocks.0/layers.2/conv1/conv/Conv_output_0: 3d4ca54d
/seg_model/dfine_model/backbone/stages.2/blocks/blocks.0/layers.2/conv1/bn/Mul_output_0: 3e27de6a
/seg_model/dfine_model/backbone/stages.2/blocks/blocks.0/layers.2/conv1/bn/Add_output_0: 3e2df159
/seg_model/dfine_model/backbone/stages.2/blocks/blocks.0/layers.2/conv2/conv/Conv_output_0: 3d1d283a
/seg_model/dfine_model/backbone/stages.2/blocks/blocks.0/layers.2/conv2/bn/Mul_output_0: 3e97a9b3
/seg_model/dfine_model/backbone/stages.2/blocks/blocks.0/layers.2/conv2/bn/Add_output_0: 3e8fcdfd
/seg_model/dfine_model/backbone/stages.2/blocks/blocks.0/layers.2/conv2/act/Relu_output_0: 3e680da8
/seg_model/dfine_model/backbone/stages.2/blocks/blocks.0/layers.3/conv1/conv/Conv_output_0: 3d34b509
/seg_model/dfine_model/backbone/stages.2/blocks/blocks.0/layers.3/conv1/bn/Mul_output_0: 3e2491e3
/seg_model/dfine_model/backbone/stages.2/blocks/blocks.0/layers.3/conv1/bn/Add_output_0: 3e263e74
/seg_model/dfine_model/backbone/stages.2/blocks/blocks.0/layers.3/conv2/conv/Conv_output_0: 3d201b90
/seg_model/dfine_model/backbone/stages.2/blocks/blocks.0/layers.3/conv2/bn/Mul_output_0: 3e5f9cf9
/seg_model/dfine_model/backbone/stages.2/blocks/blocks.0/layers.3/conv2/bn/Add_output_0: 3e56c0d8
/seg_model/dfine_model/backbone/stages.2/blocks/blocks.0/layers.3/conv2/act/Relu_output_0: 3e0a7426
/seg_model/dfine_model/backbone/stages.2/blocks/blocks.0/layers.4/conv1/conv/Conv_output_0: 3caf5eb5
/seg_model/dfine_model/backbone/stages.2/blocks/blocks.0/layers.4/conv1/bn/Mul_output_0: 3e2fea47
/seg_model/dfine_model/backbone/stages.2/blocks/blocks.0/layers.4/conv1/bn/Add_output_0: 3e1bb6d1
/seg_model/dfine_model/backbone/stages.2/blocks/blocks.0/layers.4/conv2/conv/Conv_output_0: 3cd960e7
/seg_model/dfine_model/backbone/stages.2/blocks/blocks.0/layers.4/conv2/bn/Mul_output_0: 3e305671
/seg_model/dfine_model/backbone/stages.2/blocks/blocks.0/layers.4/conv2/bn/Add_output_0: 3e22ea0d
/seg_model/dfine_model/backbone/stages.2/blocks/blocks.0/layers.4/conv2/act/Relu_output_0: 3dd3ad54
/seg_model/dfine_model/backbone/stages.2/blocks/blocks.0/layers.5/conv1/conv/Conv_output_0: 3c952d84
/seg_model/dfine_model/backbone/stages.2/blocks/blocks.0/layers.5/conv1/bn/Mul_output_0: 3e981701
/seg_model/dfine_model/backbone/stages.2/blocks/blocks.0/layers.5/conv1/bn/Add_output_0: 3e8e4add
/seg_model/dfine_model/backbone/stages.2/blocks/blocks.0/layers.5/conv2/conv/Conv_output_0: 3d3ece16
/seg_model/dfine_model/backbone/stages.2/blocks/blocks.0/layers.5/conv2/bn/Mul_output_0: 3f0152fb
/seg_model/dfine_model/backbone/stages.2/blocks/blocks.0/layers.5/conv2/bn/Add_output_0: 3efb2632
/seg_model/dfine_model/backbone/stages.2/blocks/blocks.0/layers.5/conv2/act/Relu_output_0: 3e1a09a6
/seg_model/dfine_model/backbone/stages.2/blocks/blocks.0/Concat_output_0: 3e951868
/seg_model/dfine_model/backbone/stages.2/blocks/blocks.0/aggregation/aggregation.0/conv/Conv_output_0: 3e314b01
/seg_model/dfine_model/backbone/stages.2/blocks/blocks.0/aggregation/aggregation.0/bn/Mul_output_0: 3e929b8a
/seg_model/dfine_model/backbone/stages.2/blocks/blocks.0/aggregation/aggregation.0/bn/Add_output_0: 3e9d0580
/seg_model/dfine_model/backbone/stages.2/blocks/blocks.0/aggregation/aggregation.0/act/Relu_output_0: 3e05db69
/seg_model/dfine_model/backbone/stages.2/blocks/blocks.0/aggregation/aggregation.1/conv/Conv_output_0: 3d67714e
/seg_model/dfine_model/backbone/stages.2/blocks/blocks.0/aggregation/aggregation.1/bn/Mul_output_0: 3e29eb8b
/seg_model/dfine_model/backbone/stages.2/blocks/blocks.0/aggregation/aggregation.1/bn/Add_output_0: 3e3368e7
/seg_model/dfine_model/backbone/stages.2/blocks/blocks.0/aggregation/aggregation.1/act/Relu_output_0: 3d8da68b
/seg_model/dfine_model/backbone/stages.2/blocks/blocks.1/layers.0/conv1/conv/Conv_output_0: 3ce686ba
/seg_model/dfine_model/backbone/stages.2/blocks/blocks.1/layers.0/conv1/bn/Mul_output_0: 3d93176a
/seg_model/dfine_model/backbone/stages.2/blocks/blocks.1/layers.0/conv1/bn/Add_output_0: 3d8a4191
/seg_model/dfine_model/backbone/stages.2/blocks/blocks.1/layers.0/conv2/conv/Conv_output_0: 3ca81328
/seg_model/dfine_model/backbone/stages.2/blocks/blocks.1/layers.0/conv2/bn/Mul_output_0: 3dc247c7
/seg_model/dfine_model/backbone/stages.2/blocks/blocks.1/layers.0/conv2/bn/Add_output_0: 3dd8820f
/seg_model/dfine_model/backbone/stages.2/blocks/blocks.1/layers.0/conv2/act/Relu_output_0: 3dca9702
/seg_model/dfine_model/backbone/stages.2/blocks/blocks.1/layers.1/conv1/conv/Conv_output_0: 3cea4a2d
/seg_model/dfine_model/backbone/stages.2/blocks/blocks.1/layers.1/conv1/bn/Mul_output_0: 3d999b0c
/seg_model/dfine_model/backbone/stages.2/blocks/blocks.1/layers.1/conv1/bn/Add_output_0: 3d793d9c
/seg_model/dfine_model/backbone/stages.2/blocks/blocks.1/layers.1/conv2/conv/Conv_output_0: 3c862b3c
/seg_model/dfine_model/backbone/stages.2/blocks/blocks.1/layers.1/conv2/bn/Mul_output_0: 3dda0dda
/seg_model/dfine_model/backbone/stages.2/blocks/blocks.1/layers.1/conv2/bn/Add_output_0: 3dbd5c55
/seg_model/dfine_model/backbone/stages.2/blocks/blocks.1/layers.1/conv2/act/Relu_output_0: 3dbd6950
/seg_model/dfine_model/backbone/stages.2/blocks/blocks.1/layers.2/conv1/conv/Conv_output_0: 3c9535bb
/seg_model/dfine_model/backbone/stages.2/blocks/blocks.1/layers.2/conv1/bn/Mul_output_0: 3d79d16b
/seg_model/dfine_model/backbone/stages.2/blocks/blocks.1/layers.2/conv1/bn/Add_output_0: 3d7b4091
/seg_model/dfine_model/backbone/stages.2/blocks/blocks.1/layers.2/conv2/conv/Conv_output_0: 3c544222
/seg_model/dfine_model/backbone/stages.2/blocks/blocks.1/layers.2/conv2/bn/Mul_output_0: 3dd5ed08
/seg_model/dfine_model/backbone/stages.2/blocks/blocks.1/layers.2/conv2/bn/Add_output_0: 3dda1a1f
/seg_model/dfine_model/backbone/stages.2/blocks/blocks.1/layers.2/conv2/act/Relu_output_0: 3dda1a1f
/seg_model/dfine_model/backbone/stages.2/blocks/blocks.1/layers.3/conv1/conv/Conv_output_0: 3c82085c
/seg_model/dfine_model/backbone/stages.2/blocks/blocks.1/layers.3/conv1/bn/Mul_output_0: 3d87472b
/seg_model/dfine_model/backbone/stages.2/blocks/blocks.1/layers.3/conv1/bn/Add_output_0: 3d8e993d
/seg_model/dfine_model/backbone/stages.2/blocks/blocks.1/layers.3/conv2/conv/Conv_output_0: 3c54d7da
/seg_model/dfine_model/backbone/stages.2/blocks/blocks.1/layers.3/conv2/bn/Mul_output_0: 3dd589e1
/seg_model/dfine_model/backbone/stages.2/blocks/blocks.1/layers.3/conv2/bn/Add_output_0: 3dd98641
/seg_model/dfine_model/backbone/stages.2/blocks/blocks.1/layers.3/conv2/act/Relu_output_0: 3dcf9fbc
/seg_model/dfine_model/backbone/stages.2/blocks/blocks.1/layers.4/conv1/conv/Conv_output_0: 3c667249
/seg_model/dfine_model/backbone/stages.2/blocks/blocks.1/layers.4/conv1/bn/Mul_output_0: 3d97504f
/seg_model/dfine_model/backbone/stages.2/blocks/blocks.1/layers.4/conv1/bn/Add_output_0: 3d93b2be
/seg_model/dfine_model/backbone/stages.2/blocks/blocks.1/layers.4/conv2/conv/Conv_output_0: 3c892267
/seg_model/dfine_model/backbone/stages.2/blocks/blocks.1/layers.4/conv2/bn/Mul_output_0: 3e274abc
/seg_model/dfine_model/backbone/stages.2/blocks/blocks.1/layers.4/conv2/bn/Add_output_0: 3e0143a1
/seg_model/dfine_model/backbone/stages.2/blocks/blocks.1/layers.4/conv2/act/Relu_output_0: 3dc1dd00
/seg_model/dfine_model/backbone/stages.2/blocks/blocks.1/layers.5/conv1/conv/Conv_output_0: 3c327b3a
/seg_model/dfine_model/backbone/stages.2/blocks/blocks.1/layers.5/conv1/bn/Mul_output_0: 3dbd56bb
/seg_model/dfine_model/backbone/stages.2/blocks/blocks.1/layers.5/conv1/bn/Add_output_0: 3dac55dd
/seg_model/dfine_model/backbone/stages.2/blocks/blocks.1/layers.5/conv2/conv/Conv_output_0: 3c79c1c5
/seg_model/dfine_model/backbone/stages.2/blocks/blocks.1/layers.5/conv2/bn/Mul_output_0: 3e09cbd1
/seg_model/dfine_model/backbone/stages.2/blocks/blocks.1/layers.5/conv2/bn/Add_output_0: 3e098d46
/seg_model/dfine_model/backbone/stages.2/blocks/blocks.1/layers.5/conv2/act/Relu_output_0: 3df873e5
/seg_model/dfine_model/backbone/stages.2/blocks/blocks.1/Concat_output_0: 3dc32738
/seg_model/dfine_model/backbone/stages.2/blocks/blocks.1/aggregation/aggregation.0/conv/Conv_output_0: 3d3d4fe7
/seg_model/dfine_model/backbone/stages.2/blocks/blocks.1/aggregation/aggregation.0/bn/Mul_output_0: 3e00369a
/seg_model/dfine_model/backbone/stages.2/blocks/blocks.1/aggregation/aggregation.0/bn/Add_output_0: 3e10de68
/seg_model/dfine_model/backbone/stages.2/blocks/blocks.1/aggregation/aggregation.0/act/Relu_output_0: 3dc14de6
/seg_model/dfine_model/backbone/stages.2/blocks/blocks.1/aggregation/aggregation.1/conv/Conv_output_0: 3cac7160
/seg_model/dfine_model/backbone/stages.2/blocks/blocks.1/aggregation/aggregation.1/bn/Mul_output_0: 3da5e292
/seg_model/dfine_model/backbone/stages.2/blocks/blocks.1/aggregation/aggregation.1/bn/Add_output_0: 3d57fbcf
/seg_model/dfine_model/backbone/stages.2/blocks/blocks.1/aggregation/aggregation.1/act/Relu_output_0: 3d8a077e
/seg_model/dfine_model/backbone/stages.2/blocks/blocks.1/Add_output_0: 3d94788a
/seg_model/dfine_model/backbone/stages.2/blocks/blocks.2/layers.0/conv1/conv/Conv_output_0: 3d05670c
/seg_model/dfine_model/backbone/stages.2/blocks/blocks.2/layers.0/conv1/bn/Mul_output_0: 3d99641d
/seg_model/dfine_model/backbone/stages.2/blocks/blocks.2/layers.0/conv1/bn/Add_output_0: 3d992287
/seg_model/dfine_model/backbone/stages.2/blocks/blocks.2/layers.0/conv2/conv/Conv_output_0: 3c8aa6f3
/seg_model/dfine_model/backbone/stages.2/blocks/blocks.2/layers.0/conv2/bn/Mul_output_0: 3e1d4e25
/seg_model/dfine_model/backbone/stages.2/blocks/blocks.2/layers.0/conv2/bn/Add_output_0: 3e1f86b2
/seg_model/dfine_model/backbone/stages.2/blocks/blocks.2/layers.0/conv2/act/Relu_output_0: 3ded1f07
/seg_model/dfine_model/backbone/stages.2/blocks/blocks.2/layers.1/conv1/conv/Conv_output_0: 3c8efcd7
/seg_model/dfine_model/backbone/stages.2/blocks/blocks.2/layers.1/conv1/bn/Mul_output_0: 3da9d06f
/seg_model/dfine_model/backbone/stages.2/blocks/blocks.2/layers.1/conv1/bn/Add_output_0: 3da2019e
/seg_model/dfine_model/backbone/stages.2/blocks/blocks.2/layers.1/conv2/conv/Conv_output_0: 3c78408f
/seg_model/dfine_model/backbone/stages.2/blocks/blocks.2/layers.1/conv2/bn/Mul_output_0: 3de027de
/seg_model/dfine_model/backbone/stages.2/blocks/blocks.2/layers.1/conv2/bn/Add_output_0: 3ddb2a0b
/seg_model/dfine_model/backbone/stages.2/blocks/blocks.2/layers.1/conv2/act/Relu_output_0: 3dd81148
/seg_model/dfine_model/backbone/stages.2/blocks/blocks.2/layers.2/conv1/conv/Conv_output_0: 3cc483d4
/seg_model/dfine_model/backbone/stages.2/blocks/blocks.2/layers.2/conv1/bn/Mul_output_0: 3dcbd844
/seg_model/dfine_model/backbone/stages.2/blocks/blocks.2/layers.2/conv1/bn/Add_output_0: 3dc665ca
/seg_model/dfine_model/backbone/stages.2/blocks/blocks.2/layers.2/conv2/conv/Conv_output_0: 3c8cb228
/seg_model/dfine_model/backbone/stages.2/blocks/blocks.2/layers.2/conv2/bn/Mul_output_0: 3de684eb
/seg_model/dfine_model/backbone/stages.2/blocks/blocks.2/layers.2/conv2/bn/Add_output_0: 3df13b3d
/seg_model/dfine_model/backbone/stages.2/blocks/blocks.2/layers.2/conv2/act/Relu_output_0: 3d9e2385
/seg_model/dfine_model/backbone/stages.2/blocks/blocks.2/layers.3/conv1/conv/Conv_output_0: 3c41a7f6
/seg_model/dfine_model/backbone/stages.2/blocks/blocks.2/layers.3/conv1/bn/Mul_output_0: 3dbd1357
/seg_model/dfine_model/backbone/stages.2/blocks/blocks.2/layers.3/conv1/bn/Add_output_0: 3db2f479
/seg_model/dfine_model/backbone/stages.2/blocks/blocks.2/layers.3/conv2/conv/Conv_output_0: 3c7eacc3
/seg_model/dfine_model/backbone/stages.2/blocks/blocks.2/layers.3/conv2/bn/Mul_output_0: 3daa66e0
/seg_model/dfine_model/backbone/stages.2/blocks/blocks.2/layers.3/conv2/bn/Add_output_0: 3da872d7
/seg_model/dfine_model/backbone/stages.2/blocks/blocks.2/layers.3/conv2/act/Relu_output_0: 3d8bfc8a
/seg_model/dfine_model/backbone/stages.2/blocks/blocks.2/layers.4/conv1/conv/Conv_output_0: 3c21d37c
/seg_model/dfine_model/backbone/stages.2/blocks/blocks.2/layers.4/conv1/bn/Mul_output_0: 3dc6c6f3
/seg_model/dfine_model/backbone/stages.2/blocks/blocks.2/layers.4/conv1/bn/Add_output_0: 3dafde43
/seg_model/dfine_model/backbone/stages.2/blocks/blocks.2/layers.4/conv2/conv/Conv_output_0: 3c5f41e0
/seg_model/dfine_model/backbone/stages.2/blocks/blocks.2/layers.4/conv2/bn/Mul_output_0: 3d681baf
/seg_model/dfine_model/backbone/stages.2/blocks/blocks.2/layers.4/conv2/bn/Add_output_0: 3d65c71b
/seg_model/dfine_model/backbone/stages.2/blocks/blocks.2/layers.4/conv2/act/Relu_output_0: 3d704e53
/seg_model/dfine_model/backbone/stages.2/blocks/blocks.2/layers.5/conv1/conv/Conv_output_0: 3c126913
/seg_model/dfine_model/backbone/stages.2/blocks/blocks.2/layers.5/conv1/bn/Mul_output_0: 3de9db31
/seg_model/dfine_model/backbone/stages.2/blocks/blocks.2/layers.5/conv1/bn/Add_output_0: 3d7d3627
/seg_model/dfine_model/backbone/stages.2/blocks/blocks.2/layers.5/conv2/conv/Conv_output_0: 3cc2bf00
/seg_model/dfine_model/backbone/stages.2/blocks/blocks.2/layers.5/conv2/bn/Mul_output_0: 3e1857ae
/seg_model/dfine_model/backbone/stages.2/blocks/blocks.2/layers.5/conv2/bn/Add_output_0: 3e03c6b0
/seg_model/dfine_model/backbone/stages.2/blocks/blocks.2/layers.5/conv2/act/Relu_output_0: 3da4bfbb
/seg_model/dfine_model/backbone/stages.2/blocks/blocks.2/Concat_output_0: 3d96c26a
/seg_model/dfine_model/backbone/stages.2/blocks/blocks.2/aggregation/aggregation.0/conv/Conv_output_0: 3d072d48
/seg_model/dfine_model/backbone/stages.2/blocks/blocks.2/aggregation/aggregation.0/bn/Mul_output_0: 3e2adb7c
/seg_model/dfine_model/backbone/stages.2/blocks/blocks.2/aggregation/aggregation.0/bn/Add_output_0: 3e2233e0
/seg_model/dfine_model/backbone/stages.2/blocks/blocks.2/aggregation/aggregation.0/act/Relu_output_0: 3dc3f1d1
/seg_model/dfine_model/backbone/stages.2/blocks/blocks.2/aggregation/aggregation.1/conv/Conv_output_0: 3c71e778
/seg_model/dfine_model/backbone/stages.2/blocks/blocks.2/aggregation/aggregation.1/bn/Mul_output_0: 3dd11862
/seg_model/dfine_model/backbone/stages.2/blocks/blocks.2/aggregation/aggregation.1/bn/Add_output_0: 3df692a5
/seg_model/dfine_model/backbone/stages.2/blocks/blocks.2/aggregation/aggregation.1/act/Relu_output_0: 3db28d80
/seg_model/dfine_model/backbone/stages.2/blocks/blocks.2/Add_output_0: 3db08b06
/seg_model/dfine_model/backbone/stages.2/blocks/blocks.3/layers.0/conv1/conv/Conv_output_0: 3d183174
/seg_model/dfine_model/backbone/stages.2/blocks/blocks.3/layers.0/conv1/bn/Mul_output_0: 3db18029
/seg_model/dfine_model/backbone/stages.2/blocks/blocks.3/layers.0/conv1/bn/Add_output_0: 3da947eb
/seg_model/dfine_model/backbone/stages.2/blocks/blocks.3/layers.0/conv2/conv/Conv_output_0: 3c99970a
/seg_model/dfine_model/backbone/stages.2/blocks/blocks.3/layers.0/conv2/bn/Mul_output_0: 3df02d08
/seg_model/dfine_model/backbone/stages.2/blocks/blocks.3/layers.0/conv2/bn/Add_output_0: 3dfe691e
/seg_model/dfine_model/backbone/stages.2/blocks/blocks.3/layers.0/conv2/act/Relu_output_0: 3dd1e755
/seg_model/dfine_model/backbone/stages.2/blocks/blocks.3/layers.1/conv1/conv/Conv_output_0: 3ca30a68
/seg_model/dfine_model/backbone/stages.2/blocks/blocks.3/layers.1/conv1/bn/Mul_output_0: 3db01d85
/seg_model/dfine_model/backbone/stages.2/blocks/blocks.3/layers.1/conv1/bn/Add_output_0: 3da03c46
/seg_model/dfine_model/backbone/stages.2/blocks/blocks.3/layers.1/conv2/conv/Conv_output_0: 3c7bda6b
/seg_model/dfine_model/backbone/stages.2/blocks/blocks.3/layers.1/conv2/bn/Mul_output_0: 3dc7fbce
